<unk>	0
<s>	0
</s>	0
,	-3.0529
.	-3.54647
▁	-3.90671
▁і	-4.44938
▁в	-4.54663
:	-4.70152
▁з	-4.72581
-	-4.81313
▁на	-4.86694
і	-4.8901
а	-4.98077
▁для	-5.09049
▁-	-5.1478
и	-5.25594
у	-5.38458
▁та	-5.41618
▁(	-5.46105
)	-5.46426
▁не	-5.54774
'	-5.55695
▁до	-5.56591
▁що	-5.59378
▁ви	-5.6131
ий	-5.61473
▁у	-5.73566
▁за	-5.81027
▁_	-5.96395
▁або	-5.96983
▁від	-5.97793
▁як	-6.01584
е	-6.03396
их	-6.1246
ів	-6.12765
▁є	-6.13375
?	-6.15423
▁/	-6.19727
о	-6.20587
▁про	-6.22568
▁це	-6.23092
▁щоб	-6.23901
s	-6.28399
ого	-6.31666
▁по	-6.34476
▁1	-6.40168
м	-6.40648
ом	-6.42879
!	-6.49401
ні	-6.51207
ої	-6.54429
▁2	-6.60527
▁"	-6.61418
▁У	-6.67248
я	-6.67791
▁які	-6.68887
▁Ви	-6.71216
▁3	-6.72545
/	-6.73322
▁ми	-6.76509
на	-6.7776
"	-6.78407
х	-6.7843
▁В	-6.82411
▁може	-6.83376
й	-6.84901
▁З	-6.85056
▁а	-6.85952
им	-6.88002
;	-6.90437
▁я	-6.91624
▁10	-6.92848
▁також	-6.93331
ою	-6.9381
в	-6.93844
▁...	-6.94674
2	-6.94796
▁можете	-6.96108
▁бути	-6.96413
▁час	-6.971
ю	-6.98331
▁його	-6.98622
▁Як	-6.98709
▁5	-6.98891
ний	-6.99463
...	-6.99964
ки	-7.00629
ка	-7.01197
ами	-7.02527
▁при	-7.02734
▁Це	-7.04075
▁«	-7.04622
▁будь	-7.0534
▁КВІТІВ	-7.05529
▁4	-7.07537
с	-7.0817
▁ІНТЕРНЕТ	-7.09001
▁ДОСТАВКУ	-7.09221
▁ФЛОРИСТОМ	-7.09225
💐	-7.11246
▁але	-7.11424
▁вам	-7.11475
▁під	-7.1189
▁Якщо	-7.12331
▁тому	-7.13443
▁Ми	-7.13932
1	-7.15595
▁На	-7.15758
д	-7.17722
▁відео	-7.18836
com	-7.19755
ми	-7.20024
▁–	-7.21104
не	-7.23425
▁якщо	-7.25688
▁С	-7.2596
▁Я	-7.26204
▁можна	-7.26411
▁буде	-7.26574
▁І	-7.27228
4	-7.27257
▁м	-7.27803
▁їх	-7.2846
▁який	-7.3037
ах	-7.31944
ому	-7.32584
▁&	-7.33295
▁вас	-7.33863
▁A	-7.34339
▁12	-7.34651
ся	-7.35343
▁так	-7.35361
з	-7.38129
▁більше	-7.39443
▁він	-7.40336
ими	-7.41379
▁вони	-7.4263
но	-7.42958
3	-7.43025
S	-7.43035
них	-7.43106
ій	-7.43853
▁6	-7.44188
▁того	-7.44552
▁Для	-7.44819
»	-7.4535
▁8	-7.4536
▁має	-7.46588
ї	-7.48054
▁дуже	-7.48841
те	-7.48859
▁коли	-7.49093
’	-7.49358
▁S	-7.50314
▁можуть	-7.50398
▁тільки	-7.50574
ку	-7.5206
▁7	-7.52322
▁багато	-7.53833
e	-7.53882
к	-7.54142
▁все	-7.54927
▁За	-7.55275
▁По	-7.55775
ти	-7.56021
т	-7.57143
▁зробити	-7.57154
▁через	-7.58305
B	-7.58891
▁де	-7.59129
▁всі	-7.5959
i	-7.60371
▁більш	-7.60697
▁її	-7.61833
▁П	-7.62172
▁без	-7.62581
▁B	-7.63837
y	-7.64984
▁потрібно	-7.65227
▁А	-7.65243
▁20	-7.6528
D	-7.65384
мо	-7.65691
▁15	-7.66684
▁ніж	-7.67779
р	-7.68367
▁C	-7.68438
го	-7.68644
▁11	-7.69425
▁те	-7.69501
d	-7.71076
▁18	-7.71301
▁>	-7.71611
▁повинні	-7.71873
▁після	-7.71923
▁$	-7.72641
(	-7.73578
ці	-7.73604
▁19	-7.74296
▁с	-7.74678
▁•	-7.7515
▁цього	-7.75348
ного	-7.75375
▁із	-7.75928
▁[	-7.76016
▁чи	-7.76165
▁веб	-7.76405
▁пере	-7.7643
C	-7.76704
▁допомогою	-7.76841
▁отримати	-7.77457
a	-7.77771
▁роз	-7.77782
▁об	-7.77786
▁Завантажити	-7.79655
▁використовувати	-7.80145
▁E	-7.80448
er	-7.80469
▁+	-7.80862
▁Не	-7.80967
5	-7.81803
▁2019	-7.81858
▁Що	-7.81894
ок	-7.82176
ing	-7.82231
▁р	-7.8245
▁даних	-7.82464
▁зв	-7.83053
▁D	-7.83272
▁рік	-7.83437
▁2018	-7.83967
▁б	-7.8414
▁T	-7.84148
▁9	-7.85249
▁один	-7.85735
ш	-7.85813
▁онлайн	-7.8693
В	-7.88396
]	-7.88689
С	-7.8877
).	-7.89112
н	-7.89146
▁був	-7.89665
x	-7.90153
▁використання	-7.90689
ли	-7.90757
▁P	-7.92685
п	-7.92906
8	-7.93345
▁16	-7.93725
G	-7.94041
▁тут	-7.94343
▁ваш	-7.94615
▁день	-7.94841
▁яка	-7.94896
▁Про	-7.95212
A	-7.95275
є	-7.95398
▁13	-7.95932
L	-7.96159
▁просто	-7.96309
ня	-7.96621
▁цьому	-7.96634
ну	-7.96734
ч	-7.97424
▁ще	-7.9752
ла	-7.9831
▁V	-7.98654
▁М	-7.98774
▁К	-7.99
▁цей	-7.99604
ість	-7.99661
▁років	-8.00081
o	-8.00517
▁30	-8.00697
▁До	-8.00894
▁нас	-8.0135
▁інших	-8.01616
▁забезпечення	-8.01699
увати	-8.01979
▁себе	-8.02127
▁Китай	-8.02511
▁Відео	-8.0281
▁G	-8.0289
▁то	-8.03176
▁ж	-8.03272
▁Доставка	-8.03423
г	-8.03978
лі	-8.0416
▁»	-8.04265
▁км	-8.04317
▁п	-8.04676
V	-8.04998
H	-8.05418
▁F	-8.0574
та	-8.05911
за	-8.05952
▁2017	-8.06633
="	-8.06748
T	-8.07132
ної	-8.07155
▁було	-8.07332
▁програми	-8.0741
▁інші	-8.07703
▁всіх	-8.07961
6	-8.08625
▁О	-8.08697
▁назад	-8.08778
7	-8.08797
▁*	-8.09092
▁життя	-8.09125
▁вона	-8.09238
▁M	-8.09359
ь	-8.09617
А	-8.09807
б	-8.10047
W	-8.10101
▁хочете	-8.10595
▁14	-8.10888
▁вашого	-8.10946
n	-8.10946
m	-8.12027
▁Windows	-8.12576
▁роботи	-8.12621
▁H	-8.12669
му	-8.12811
▁17	-8.12855
P	-8.13308
▁комп	-8.13375
▁<	-8.13681
▁При	-8.13791
▁легко	-8.14475
F	-8.14593
ed	-8.14785
▁системи	-8.14982
ж	-8.15266
▁Hotel	-8.15323
▁Від	-8.1545
л	-8.15522
▁завантаження	-8.15624
▁Він	-8.15698
▁Квітка	-8.16175
▁0	-8.16203
▁24	-8.1626
▁R	-8.16328
▁зі	-8.16356
t	-8.17437
ля	-8.17751
▁Android	-8.18178
▁Д	-8.18629
K	-8.19045
▁ласка	-8.19054
▁свій	-8.19237
З	-8.19326
9	-8.19499
ування	-8.19961
▁2016	-8.20273
ові	-8.20442
ити	-8.20557
ться	-8.20853
▁сайт	-8.21022
▁о	-8.2103
▁a	-8.21199
▁L	-8.21202
П	-8.21229
▁року	-8.21847
▁автомобілів	-8.22852
▁K	-8.22925
▁“	-8.23132
▁25	-8.24044
▁квіти	-8.24311
b	-8.24406
ати	-8.2473
▁навіть	-8.25044
Д	-8.25182
▁хто	-8.25496
▁Чи	-8.25588
▁безкоштовно	-8.25624
▁здоров	-8.25656
ма	-8.26392
Т	-8.26544
M	-8.26567
▁КСНУМКС	-8.26878
”	-8.26966
f	-8.26981
по	-8.27045
▁якості	-8.27059
▁протягом	-8.27263
▁мають	-8.2745
▁готелі	-8.27718
▁кілька	-8.27849
▁канал	-8.2823
▁Всі	-8.28614
▁W	-8.28622
c	-8.28728
▁100	-8.29195
ам	-8.29566
://	-8.30007
▁США	-8.30118
▁ігри	-8.30169
К	-8.30512
▁мене	-8.30737
▁TNT	-8.30757
▁між	-8.31178
▁людей	-8.31401
мм	-8.31569
▁вже	-8.31738
▁часу	-8.32212
▁пропонує	-8.32519
10	-8.32596
Р	-8.32809
_	-8.33292
▁Але	-8.33533
▁добре	-8.33681
w	-8.33724
▁start	-8.33842
▁й	-8.34182
ль	-8.34267
▁dur	-8.34284
овий	-8.34303
h	-8.34389
ості	-8.34485
▁були	-8.34486
▁Категорія	-8.34738
ним	-8.34927
▁I	-8.35041
▁Є	-8.35044
p	-8.35127
Б	-8.35281
k	-8.35371
▁обладнання	-8.35827
▁Б	-8.35854
ни	-8.3643
▁різних	-8.36563
то	-8.36563
▁компанії	-8.3708
▁знайти	-8.37361
М	-8.37611
ва	-8.38491
▁послуги	-8.38524
▁ці	-8.38786
▁питання	-8.38935
▁мати	-8.3898
▁інформації	-8.39088
▁клієнтів	-8.39213
g	-8.39271
0	-8.39627
▁працює	-8.39749
▁50	-8.40919
▁лише	-8.41051
▁деякі	-8.41127
▁завжди	-8.41582
У	-8.41621
▁ваші	-8.41646
▁свої	-8.41756
▁дані	-8.42347
R	-8.42846
он	-8.42952
▁Ukraine	-8.42988
u	-8.43037
▁немає	-8.43281
ло	-8.43373
▁т	-8.43414
ко	-8.43474
N	-8.43745
▁HD	-8.43802
▁Будь	-8.43961
▁лікування	-8.43964
▁N	-8.44322
▁©	-8.44682
▁перед	-8.45133
▁г	-8.45756
▁нам	-8.45798
га	-8.45858
on	-8.4616
▁них	-8.46485
▁зображень	-8.46831
▁Г	-8.46955
сь	-8.47466
▁днів	-8.47474
in	-8.47485
▁обслуговування	-8.47623
▁Дата	-8.4771
▁Цей	-8.47718
▁троянд	-8.47993
X	-8.48022
▁гри	-8.48051
▁кіно	-8.48164
▁21	-8.48277
▁Головна	-8.48342
▁пам	-8.48582
E	-8.48586
ія	-8.49184
▁22	-8.49271
▁знаходиться	-8.49618
v	-8.4971
▁J	-8.49829
▁будуть	-8.50221
▁дозволяє	-8.50371
▁мені	-8.50371
▁продукти	-8.5061
▁той	-8.50732
▁Квіти	-8.50779
▁Коли	-8.51019
І	-8.51245
▁Після	-8.51246
де	-8.51393
▁свою	-8.51588
▁USD	-8.51791
00	-8.51866
▁зображення	-8.5191
r	-8.52028
▁чином	-8.52032
al	-8.52242
▁найбільш	-8.52558
кою	-8.5259
▁татуювання	-8.52676
▁пов	-8.52694
ви	-8.52861
de	-8.52887
▁ціна	-8.53383
▁2020	-8.53445
▁розмір	-8.5356
▁щодо	-8.53769
▁VPN	-8.54004
Г	-8.54127
▁зараз	-8.54274
▁День	-8.54405
▁інформацію	-8.54729
▁повідомлення	-8.54741
ms	-8.54747
ем	-8.55411
який	-8.55523
▁раз	-8.55857
▁23	-8.56122
▁такі	-8.56202
ує	-8.56351
▁мм	-8.56494
▁s	-8.56749
▁Так	-8.56761
ії	-8.57487
ова	-8.57615
▁Google	-8.57641
th	-8.57793
▁X	-8.57794
▁Т	-8.58091
▁була	-8.58164
▁краще	-8.58223
11	-8.58387
▁робити	-8.58742
▁інформація	-8.58962
▁ваших	-8.59478
▁The	-8.59624
▁допомогти	-8.59746
▁·	-8.59844
▁2015	-8.59913
▁доступ	-8.60142
▁the	-8.60468
▁#	-8.60778
▁2013	-8.60992
▁кількість	-8.61185
▁замовлення	-8.61211
▁швидко	-8.61595
▁рішення	-8.61864
es	-8.61979
l	-8.62308
▁Вони	-8.62872
▁1.	-8.63066
до	-8.63273
▁дизайн	-8.63504
▁сайту	-8.63526
▁запис	-8.63541
▁управління	-8.63722
ор	-8.63906
▁оновлення	-8.64515
▁світу	-8.64777
▁Готелі	-8.64823
▁фото	-8.65001
▁переглядів	-8.65575
▁посилання	-8.65876
▁цю	-8.66029
▁Готель	-8.6618
▁цієї	-8.66313
сайт	-8.66327
▁Де	-8.66473
▁Версія	-8.66526
ер	-8.66616
▁таке	-8.6663
від	-8.66732
▁повинен	-8.66863
ський	-8.66977
▁телефон	-8.67086
▁сьогодні	-8.67285
▁Щоб	-8.67298
ті	-8.673
▁Під	-8.67806
">	-8.67807
en	-8.67969
Я	-8.68403
▁таких	-8.68413
▁цих	-8.68507
▁обліков	-8.68934
ді	-8.69064
ру	-8.69187
12	-8.69826
▁наш	-8.69894
▁новий	-8.70195
▁файлів	-8.702
▁тим	-8.70229
▁Вам	-8.70593
рі	-8.70831
▁казино	-8.70844
an	-8.70845
▁над	-8.71075
да	-8.71408
▁хвилин	-8.71503
▁води	-8.71638
▁Інтернет	-8.71836
▁—	-8.71946
▁можливість	-8.72046
▁вибрати	-8.72286
@	-8.72423
▁O	-8.72705
Х	-8.72748
▁26	-8.72772
▁файли	-8.7293
▁користувачів	-8.72983
▁наших	-8.73115
▁місяців	-8.73228
▁нові	-8.73393
▁бізнес	-8.73759
кс	-8.7399
▁Ваш	-8.74258
ують	-8.74338
▁безпеки	-8.74758
ник	-8.75045
▁електронної	-8.75081
▁нами	-8.75256
▁ін	-8.75342
▁світі	-8.75798
ними	-8.75867
▁місце	-8.75902
Заг	-8.75928
▁потім	-8.76108
▁Ця	-8.76188
▁слід	-8.7621
▁різні	-8.76736
ст	-8.76749
▁будинки	-8.76767
▁Крім	-8.77109
▁можемо	-8.77256
▁см	-8.77296
ди	-8.77324
кі	-8.77348
z	-8.77682
▁40	-8.77703
ro	-8.77864
сі	-8.77886
▁перегляди	-8.78147
ту	-8.78158
▁27	-8.78393
ній	-8.78443
▁досить	-8.78753
▁Co	-8.78834
▁отримання	-8.78879
▁часто	-8.79077
▁Розмір	-8.79134
▁грати	-8.79231
▁додаток	-8.7927
▁2014	-8.79312
ф	-8.79357
▁означає	-8.79559
▁наші	-8.79626
▁відповідно	-8.79838
▁одного	-8.79842
які	-8.79872
▁спосіб	-8.7989
лю	-8.8005
▁продукт	-8.80168
▁гостем	-8.80192
▁продуктів	-8.80381
ню	-8.80502
ружено	-8.80571
▁€	-8.80728
ність	-8.80759
Н	-8.80812
▁гроші	-8.80828
О	-8.80844
▁нижче	-8.80847
".	-8.80974
▁2.	-8.81133
▁ре	-8.8124
▁Тривалість	-8.81469
▁Ш	-8.81561
▁система	-8.81578
▁випадку	-8.81652
50	-8.81674
▁якість	-8.81843
▁сайті	-8.81961
бі	-8.82095
▁тих	-8.82293
▁ціни	-8.82334
▁чому	-8.82361
Ф	-8.8238
▁вибір	-8.82495
▁машини	-8.826
▁Е	-8.8268
▁проти	-8.82922
▁два	-8.83071
ання	-8.83074
▁послуг	-8.8308
us	-8.83133
net	-8.83172
▁Тип	-8.83377
▁Z	-8.83396
▁Р	-8.83401
▁Вона	-8.83524
▁Роз	-8.83561
▁харчування	-8.83821
▁робить	-8.83851
▁колір	-8.83867
ia	-8.83876
▁28	-8.84482
▁Розробник	-8.84734
▁створення	-8.84902
мін	-8.85151
▁статті	-8.85273
▁машина	-8.8536
▁фотографії	-8.85561
ить	-8.85695
▁троянди	-8.85741
▁Ф	-8.85779
▁гра	-8.85812
▁одним	-8.85827
ar	-8.86024
▁свого	-8.86038
▁cookie	-8.86139
▁році	-8.86167
▁яку	-8.86365
▁вашої	-8.86493
▁необхідно	-8.8668
ре	-8.86753
▁значення	-8.86833
▁код	-8.8691
▁доступні	-8.86916
▁підтримки	-8.87457
▁3.	-8.87464
ме	-8.87529
▁волосся	-8.87598
▁сторінка	-8.87651
▁яке	-8.87816
mm	-8.87825
▁всього	-8.87916
*	-8.88071
▁зміни	-8.88131
▁Її	-8.88184
www	-8.882
ц	-8.88339
▁продукту	-8.88344
▁користувача	-8.88359
▁Х	-8.88554
▁дітей	-8.88732
▁яких	-8.88752
ять	-8.88848
ше	-8.89176
le	-8.8936
▁кожен	-8.89364
▁60	-8.89427
ною	-8.89593
is	-8.8981
ле	-8.89816
▁право	-8.90001
▁проблеми	-8.90119
▁£	-8.90565
ра	-8.90794
U	-8.91067
ська	-8.91173
ба	-8.91253
▁пошти	-8.91299
▁людини	-8.91389
▁Веб	-8.91498
ат	-8.9161
▁типу	-8.91667
▁29	-8.91937
▁Ці	-8.91997
▁програма	-8.92303
at	-8.92426
Y	-8.92575
▁роботу	-8.92608
▁мережі	-8.92644
▁Новий	-8.92701
▁великий	-8.9276
▁доставки	-8.92763
▁люди	-8.9291
▁сказав	-8.93141
▁No	-8.93158
▁номер	-8.93304
▁працювати	-8.93559
▁міста	-8.93599
▁новини	-8.9364
▁саме	-8.93744
мі	-8.93835
15	-8.93953
ють	-8.94074
▁підліток	-8.94118
використовується	-8.94363
▁Огляд	-8.9438
▁програмне	-8.9452
ши	-8.94619
нь	-8.9465
▁Гаряча	-8.94872
▁основі	-8.94872
▁результати	-8.95109
▁годин	-8.95188
▁Далі	-8.9535
%	-8.95364
▁вашому	-8.9551
▁квітів	-8.95707
▁три	-8.95735
▁Ігри	-8.95867
ra	-8.96143
ному	-8.96254
ов	-8.96458
&	-8.96488
O	-8.96915
el	-8.96932
ur	-8.97061
▁аеропорту	-8.97101
▁своїх	-8.97119
уйте	-8.97155
ають	-8.97264
▁Pro	-8.97298
J	-8.97376
▁кухні	-8.97423
ан	-8.97515
ація	-8.97613
▁можу	-8.97628
▁труби	-8.97641
▁же	-8.97678
▁світло	-8.9786
▁завод	-8.97905
▁побачити	-8.97963
▁встановити	-8.98003
Е	-8.98007
▁Чому	-8.98035
▁Новини	-8.98111
про	-8.98267
24	-8.98337
18	-8.98347
▁виробництва	-8.98458
▁огляд	-8.98851
▁будете	-8.98894
Л	-8.99095
ком	-8.99246
▁навчання	-8.9949
▁вище	-8.9954
ly	-8.99693
▁ко	-8.99711
вер	-8.9977
▁перший	-9.00467
▁=	-9.00598
сті	-9.00742
25	-9.00955
▁відгуки	-9.01021
▁технології	-9.01286
co	-9.01293
▁забезпечує	-9.01344
▁компанія	-9.01433
▁вашу	-9.01514
▁файл	-9.01659
▁далі	-9.01705
ol	-9.01735
єм	-9.01795
ос	-9.01931
▁знати	-9.02057
▁кольору	-9.02126
▁програм	-9.02474
▁Ціна	-9.02482
ових	-9.02515
▁брюнетка	-9.02692
▁дійсно	-9.02756
кон	-9.02762
re	-9.02898
▁захисту	-9.03101
▁багатьох	-9.03184
▁повністю	-9.03265
▁роки	-9.03323
ає	-9.03442
▁PDF	-9.03496
it	-9.03627
or	-9.03852
▁жінок	-9.03948
▁само	-9.03956
роб	-9.04079
▁функції	-9.04178
▁готелю	-9.04216
▁(1)	-9.04373
▁місця	-9.04423
ть	-9.04453
I	-9.04727
су	-9.04796
▁200	-9.0481
16	-9.04865
ації	-9.0501
▁права	-9.05194
зна	-9.05206
Z	-9.0523
▁нашому	-9.05355
▁Також	-9.0542
▁Об	-9.05472
▁освітлення	-9.05496
▁Кращі	-9.05616
▁Нові	-9.05694
et	-9.0576
45	-9.05858
▁можливо	-9.05944
ен	-9.06009
▁Час	-9.06303
▁створити	-9.06315
зи	-9.06595
▁31	-9.06829
▁близько	-9.06892
▁06	-9.07004
ві	-9.07139
».	-9.07463
▁застосування	-9.07573
ста	-9.07647
▁особливо	-9.07661
$	-9.07698
▁рівень	-9.07734
▁ринку	-9.07774
▁центр	-9.07818
▁тепер	-9.07903
▁цій	-9.07965
вір	-9.08008
▁використовує	-9.08022
▁х	-9.08023
▁умови	-9.08063
j	-9.08259
яч	-9.08341
▁використовуємо	-9.08381
▁список	-9.08453
id	-9.08489
30	-9.08731
сть	-9.08756
▁разом	-9.08769
би	-9.08787
▁д	-9.08895
▁любов	-9.08992
прав	-9.09022
▁всьому	-9.09097
▁Україна	-9.09229
▁http	-9.09241
лу	-9.09249
▁обов	-9.09318
ель	-9.09393
▁трохи	-9.0946
▁тіла	-9.09534
▁опис	-9.09579
»,	-9.0961
▁°	-9.09626
▁Натисніть	-9.0963
▁Опубліковано	-9.09705
▁купити	-9.09706
зіркові	-9.09863
▁IP	-9.09893
чи	-9.10166
▁iPhone	-9.10188
▁даний	-9.10226
20	-9.10324
▁завантажити	-9.10446
▁к	-9.10535
▁автомобіль	-9.10544
▁Facebook	-9.10592
▁процес	-9.10686
il	-9.10782
03	-9.10806
▁Н	-9.10851
ується	-9.10851
▁05	-9.10913
іть	-9.10965
▁іншого	-9.10969
▁запису	-9.11108
▁тип	-9.11136
язатися	-9.11271
▁товари	-9.11382
29	-9.11424
▁ти	-9.11462
▁серед	-9.11462
ін	-9.11474
▁безкоштовні	-9.11504
▁світ	-9.11516
▁людина	-9.116
чі	-9.11629
▁інтернет	-9.11751
че	-9.11759
▁DVB	-9.1209
▁досвід	-9.12336
▁валют	-9.12385
▁TV	-9.12497
▁можливості	-9.12556
22	-9.12612
19	-9.12898
▁c	-9.12917
▁продажу	-9.13005
▁наприклад	-9.13021
▁Wi	-9.13035
си	-9.13201
▁обробки	-9.13213
▁2012	-9.13245
▁дослідження	-9.13298
▁Виробники	-9.13317
▁нього	-9.13548
▁Пошук	-9.14111
▁Однак	-9.14132
▁оскільки	-9.14274
▁U	-9.14331
▁De	-9.14487
ter	-9.14535
▁дає	-9.14616
▁щось	-9.14701
ет	-9.14759
▁червоних	-9.14908
▁Л	-9.15154
4)	-9.15241
to	-9.15298
▁Деякі	-9.1549
ie	-9.15493
▁іншими	-9.15543
▁підручник	-9.15639
▁програмного	-9.15816
▁ніч	-9.15856
▁Багато	-9.15888
сти	-9.15996
▁Зв	-9.16086
▁параметри	-9.16099
▁Orphek	-9.16234
ро	-9.16383
▁v	-9.16419
▁Тепер	-9.16463
▁стиль	-9.16553
ma	-9.16583
ками	-9.16634
▁сім	-9.16825
конфіденційності	-9.16898
▁4.	-9.16915
▁налаштування	-9.16998
▁увагу	-9.17244
▁проблем	-9.17291
▁бізнесу	-9.17339
ив	-9.17509
ав	-9.17617
при	-9.17625
▁телефону	-9.17625
▁нашого	-9.17627
te	-9.17733
▁тварин	-9.1777
▁Y	-9.17891
▁нових	-9.17952
▁частини	-9.18055
▁надає	-9.18098
тер	-9.18591
▁Сторінка	-9.18653
▁авто	-9.18692
▁Інші	-9.18791
▁двох	-9.18821
▁Без	-9.18876
17	-9.1896
▁народження	-9.18972
14	-9.19067
ютер	-9.19069
▁ні	-9.1915
▁Програма	-9.19303
ей	-9.19446
▁знову	-9.19638
яжіться	-9.1968
▁менше	-9.19729
▁карту	-9.19751
▁собі	-9.19779
▁Економіка	-9.19814
це	-9.20068
>	-9.20076
▁de	-9.20095
▁Тому	-9.20116
▁Ко	-9.20141
ння	-9.20227
▁Читати	-9.20249
▁карти	-9.20268
якого	-9.20277
▁коментар	-9.2042
са	-9.20431
▁натисніть	-9.20474
ків	-9.20539
▁100%	-9.20592
▁Hack	-9.20629
▁дати	-9.20631
▁кожного	-9.2064
ал	-9.20803
▁Група	-9.20809
▁чорний	-9.20923
▁швидкість	-9.21035
или	-9.21084
▁ім	-9.21088
▁бонус	-9.21147
01	-9.21226
▁містить	-9.21294
▁відповідь	-9.21376
▁деяких	-9.21576
▁слова	-9.21681
зі	-9.21801
▁ніколи	-9.21858
▁місті	-9.21861
:00	-9.21914
▁Підліток	-9.21992
▁Код	-9.22004
▁Мар	-9.22018
▁дня	-9.22131
ne	-9.22151
▁500	-9.22216
▁Безкоштовні	-9.22223
аль	-9.22369
▁курс	-9.22625
язку	-9.2263
йте	-9.2273
▁варто	-9.22794
▁Ре	-9.22794
▁пропонують	-9.22804
дж	-9.22918
ію	-9.23007
▁змінити	-9.23111
сто	-9.23206
▁включаючи	-9.23234
тон	-9.23372
об	-9.23401
▁версія	-9.23439
na	-9.23461
▁Al	-9.23493
ду	-9.23608
▁Змішан	-9.23611
▁готель	-9.2362
▁підходить	-9.2363
▁US	-9.23678
▁змін	-9.23698
li	-9.23763
овані	-9.23901
▁дізнатися	-9.23938
▁цим	-9.24246
ch	-9.24298
▁профіль	-9.24312
▁бронювання	-9.24407
um	-9.24561
▁(2	-9.24609
▁інструмент	-9.24632
▁Пере	-9.24669
▁Середня	-9.24796
▁b	-9.24919
▁ПК	-9.24954
▁менш	-9.25033
▁правило	-9.25335
am	-9.25572
▁наступні	-9.25602
ик	-9.25898
2)	-9.26235
▁безпосередньо	-9.26257
▁речі	-9.26275
ець	-9.26315
Fi	-9.26377
яті	-9.26451
▁2011	-9.26723
▁пропонуємо	-9.26804
▁[...]	-9.26834
▁кг	-9.26841
▁to	-9.26863
▁Ц	-9.26945
айте	-9.27136
▁Наш	-9.27192
▁сервіс	-9.27201
▁повітря	-9.27257
▁запит	-9.27282
▁USB	-9.27311
▁місці	-9.27324
щ	-9.27543
▁→	-9.27678
23	-9.27687
as	-9.27737
▁кар	-9.27745
▁00	-9.27795
▁шкіри	-9.27903
▁цін	-9.27909
▁білий	-9.2794
ман	-9.27942
ke	-9.2802
▁перш	-9.28082
▁Все	-9.28142
▁включає	-9.28198
09	-9.2827
Ч	-9.28275
▁групи	-9.28288
▁Re	-9.28289
ового	-9.28344
▁Українська	-9.28526
ються	-9.28591
▁сонця	-9.28635
▁07	-9.2865
▁версії	-9.28782
▁Апартаменти	-9.28828
па	-9.2887
ча	-9.29043
13	-9.29146
",	-9.29325
21	-9.29349
став	-9.29374
▁лист	-9.2943
▁p	-9.29494
▁ефекти	-9.29828
ul	-9.2993
▁Наша	-9.30022
мен	-9.30053
ru	-9.30113
▁будинку	-9.30191
man	-9.30373
un	-9.30396
▁повинна	-9.30412
▁Виберіть	-9.30431
▁собою	-9.30462
▁раніше	-9.30463
▁прокату	-9.30545
ень	-9.30579
▁сторінки	-9.30675
али	-9.30677
ша	-9.30826
▁розвитку	-9.31013
▁пошуку	-9.31138
▁місто	-9.31198
▁служби	-9.31249
la	-9.31266
▁відповіді	-9.31315
▁Та	-9.31321
-1	-9.31322
▁доступу	-9.31341
ad	-9.31434
НІ	-9.31538
▁in	-9.31594
лив	-9.31606
▁d	-9.31633
оз	-9.31757
100	-9.31839
▁отримаєте	-9.32181
▁2010	-9.32252
ic	-9.32331
ca	-9.32345
▁би	-9.32352
▁форму	-9.32459
▁Ні	-9.32578
▁www	-9.32797
):	-9.32819
-2	-9.32898
35	-9.3312
▁пристроїв	-9.33178
▁Ось	-9.33223
яти	-9.33349
▁..	-9.33385
os	-9.33407
мер	-9.33416
3)	-9.33495
▁почати	-9.33505
уючи	-9.33549
▁відбувається	-9.33556
▁робота	-9.33595
▁області	-9.33608
▁навколо	-9.33711
▁Ltd	-9.33733
▁пакет	-9.33744
тор	-9.33766
ство	-9.33959
▁ті	-9.34002
літ	-9.3408
40	-9.34087
нов	-9.34138
mo	-9.34146
▁35	-9.34151
▁план	-9.34214
атор	-9.34261
▁(6	-9.34277
▁хардкор	-9.34381
▁Перегляди	-9.34382
▁лінії	-9.34384
▁склад	-9.34397
▁дії	-9.34478
▁Наші	-9.34677
язково	-9.34746
Ш	-9.34777
▁масаж	-9.34836
▁x	-9.34838
▁євро	-9.34906
1)	-9.34952
▁Ла	-9.35085
32	-9.35136
▁чого	-9.35185
▁рахунок	-9.35247
▁80	-9.35279
небудь	-9.35367
▁меню	-9.3543
▁Кількість	-9.3543
язані	-9.35507
▁приблизно	-9.35602
▁матеріал	-9.35741
▁забезпечити	-9.3585
▁мій	-9.35928
▁великих	-9.35953
▁Любов	-9.36181
▁допоможе	-9.36434
▁систем	-9.3647
▁Попередній	-9.36492
▁поради	-9.36502
лення	-9.36535
▁f	-9.36572
▁серії	-9.36598
▁там	-9.366
▁систему	-9.36729
єр	-9.36878
ков	-9.36904
▁товарів	-9.3694
▁пристрій	-9.36961
▁чоловіків	-9.37005
60	-9.37093
▁кнопку	-9.37121
▁(1	-9.37156
▁момент	-9.37323
▁інший	-9.37341
▁період	-9.37375
▁FM	-9.37384
▁Прокат	-9.37394
▁їм	-9.37409
st	-9.37682
▁мови	-9.37698
▁нічого	-9.37719
ар	-9.37764
єднання	-9.37812
ес	-9.37829
▁додатки	-9.37955
▁своєму	-9.38007
аючи	-9.38105
▁інструменти	-9.38196
▁варіант	-9.38212
▁Пі	-9.3854
▁правильно	-9.38639
пов	-9.38745
▁місяць	-9.38749
▁зберегти	-9.38898
ється	-9.38948
▁Великий	-9.38954
04	-9.38966
+	-9.38998
ток	-9.39059
же	-9.3909
▁режимі	-9.39172
90	-9.39368
вар	-9.39382
▁аудіо	-9.3939
▁модель	-9.39463
вати	-9.39506
▁своїми	-9.39508
▁зазвичай	-9.39598
КСНУМКС	-9.39634
▁установки	-9.39684
▁частина	-9.39711
лен	-9.39841
ючи	-9.39853
км	-9.39859
ований	-9.40122
▁Сан	-9.4014
▁додати	-9.40173
se	-9.40228
▁автоматично	-9.40237
▁вами	-9.40246
▁матеріали	-9.40267
▁by	-9.40372
▁л	-9.40411
ri	-9.40447
▁e	-9.40735
▁Q	-9.40771
ta	-9.408
▁ваше	-9.40833
02	-9.40901
▁Лі	-9.40981
▁допомагає	-9.40997
▁Які	-9.41072
▁зростання	-9.41151
▁світла	-9.41219
▁підтримка	-9.41294
інг	-9.41343
▁лілії	-9.41374
▁La	-9.41408
ця	-9.41444
ські	-9.41451
яких	-9.41544
ри	-9.41594
▁пропозиції	-9.41646
▁вид	-9.41646
▁сказати	-9.41655
▁Коментарі	-9.41668
▁(4	-9.41669
от	-9.41689
ine	-9.4173
Ц	-9.41743
▁поки	-9.41789
▁відповісти	-9.4182
▁відпочинку	-9.4182
▁види	-9.41829
06	-9.41853
И	-9.41875
ун	-9.41897
ut	-9.42054
▁ді	-9.42068
▁причини	-9.42131
▁офіс	-9.42148
гор	-9.42204
▁разів	-9.42362
ton	-9.42376
▁08	-9.42387
аж	-9.42388
ової	-9.42568
lo	-9.42636
▁ігор	-9.42652
лін	-9.42672
▁m	-9.4271
▁мама	-9.42747
▁використовуючи	-9.42835
▁32	-9.42965
▁01	-9.43002
▁Привіт	-9.43053
тов	-9.43112
▁Чорний	-9.43125
000	-9.43167
▁вартість	-9.43172
▁ваги	-9.4324
▁часом	-9.43249
▁ця	-9.4328
▁гаряча	-9.43342
ається	-9.43392
5)	-9.434
05	-9.43426
6)	-9.43429
▁кон	-9.43439
итися	-9.43629
▁Ма	-9.43811
▁ст	-9.43946
▁продукції	-9.44074
▁проблема	-9.44142
ран	-9.4416
▁відновлення	-9.44205
▁45	-9.44228
▁засоби	-9.44255
▁початку	-9.44312
=	-9.44388
▁шляхом	-9.44394
▁своє	-9.44417
▁рівні	-9.44462
▁Нова	-9.44545
▁стати	-9.44549
▁університет	-9.44562
▁(5	-9.44573
▁04	-9.4474
Відкрити	-9.4476
▁могли	-9.4483
ності	-9.44869
▁екран	-9.44902
▁обличчя	-9.45003
▁керування	-9.45093
▁кращий	-9.45126
▁рівня	-9.45193
69	-9.45306
чин	-9.45309
▁3-	-9.45385
▁взяти	-9.45422
гу	-9.45475
▁переваги	-9.45479
▁моделі	-9.45484
▁зберігання	-9.45527
ха	-9.45545
▁Онлайн	-9.45582
▁Мо	-9.4561
ce	-9.45689
▁хвилинах	-9.45722
▁Гра	-9.45782
64	-9.45784
▁важливо	-9.45838
▁числі	-9.45881
ac	-9.45926
▁декількох	-9.45931
▁ш	-9.45957
▁набагато	-9.45995
▁мовлення	-9.46288
▁команди	-9.46309
▁@	-9.46367
ин	-9.46401
лів	-9.46411
▁різання	-9.46482
▁(3	-9.46601
▁Використовуйте	-9.46605
▁Samsung	-9.46633
▁автомобіля	-9.46633
во	-9.46746
▁Його	-9.46803
ers	-9.46923
▁(2)	-9.46944
▁пристрої	-9.46968
▁скористатися	-9.46987
▁Переглядів	-9.47026
▁знаходяться	-9.47049
ir	-9.47188
▁1000	-9.47266
me	-9.47275
▁Інтернеті	-9.47341
est	-9.4736
▁Карта	-9.47423
▁наклейки	-9.47518
-4	-9.47654
міт	-9.47659
▁Один	-9.47701
ені	-9.47718
▁постачальники	-9.47737
7)	-9.47738
▁термін	-9.47738
▁знайдете	-9.47768
▁02	-9.47795
▁майже	-9.47814
▁нашу	-9.47826
▁задоволення	-9.47892
org	-9.47975
▁додатків	-9.47991
сон	-9.48006
▁країни	-9.4803
▁вечора	-9.48052
▁GPS	-9.48082
▁номерів	-9.48159
▁вигляд	-9.48189
▁вересня	-9.48291
▁будинок	-9.4835
▁використовують	-9.48442
▁набір	-9.48651
▁машин	-9.48657
▁форми	-9.48668
▁Троянди	-9.48674
іш	-9.48737
▁Просто	-9.4884
центр	-9.48844
▁крок	-9.48865
▁швидше	-9.48904
▁НА	-9.48976
▁умовах	-9.49118
ap	-9.49152
▁прямо	-9.49258
▁Кон	-9.4928
▁повний	-9.49315
▁перевірити	-9.49371
▁хв	-9.4946
▁обміну	-9.49552
8)	-9.49627
▁жінки	-9.49673
▁їжі	-9.49673
▁доступний	-9.49716
НА	-9.49718
▁методи	-9.49769
▁of	-9.49807
▁(19	-9.49826
▁квітня	-9.50044
▁файлу	-9.50174
▁стан	-9.50253
▁пір	-9.50291
ення	-9.50314
▁i	-9.50413
▁стилі	-9.5049
▁своїм	-9.50613
▁n	-9.5068
▁таким	-9.50725
▁Шаблон	-9.50768
ол	-9.50804
▁команда	-9.50831
▁Le	-9.50869
▁виконання	-9.50952
▁яким	-9.51206
▁бо	-9.5128
▁захворювання	-9.5133
▁Барселона	-9.51362
▁Mac	-9.51369
▁Дуже	-9.51397
▁завдяки	-9.51443
дав	-9.51517
яз	-9.51529
▁Листопад	-9.51567
▁нового	-9.51577
ники	-9.51621
▁програму	-9.51701
▁Наприклад	-9.51703
▁секс	-9.51708
pe	-9.51712
▁підприємства	-9.51738
▁роблять	-9.51753
▁тіло	-9.51801
▁дні	-9.51893
▁розташований	-9.51917
▁h	-9.51941
▁кімнати	-9.52009
ge	-9.52046
▁гравців	-9.52105
▁Ти	-9.52113
9)	-9.52183
▁просимо	-9.5231
▁номери	-9.52317
▁розміщення	-9.52322
▁відразу	-9.52373
ry	-9.52395
▁Дякую	-9.52558
ші	-9.52606
▁хороший	-9.52621
▁використанні	-9.52638
▁Послуги	-9.52688
ією	-9.52805
▁300	-9.52848
▁одна	-9.52854
▁телебачення	-9.52883
▁ліжко	-9.52916
▁інтер	-9.52926
якому	-9.52963
▁Зріла	-9.52995
дер	-9.5304
▁видалити	-9.53183
▁St	-9.53358
▁каналів	-9.53446
▁Велика	-9.53479
▁серпня	-9.53497
язок	-9.53537
тро	-9.53646
клад	-9.53656
▁кращих	-9.53686
▁пара	-9.53715
im	-9.53887
ят	-9.53929
▁тривалість	-9.5395
ван	-9.53988
▁(14	-9.54071
34	-9.54189
ак	-9.5434
вор	-9.54421
31	-9.54443
По	-9.54534
ували	-9.54631
▁плюс	-9.54632
▁Тут	-9.54708
▁90	-9.54716
використовуються	-9.54731
▁Грати	-9.54779
▁текст	-9.54903
0)	-9.54962
ала	-9.54974
ям	-9.54978
▁пошук	-9.55025
go	-9.55038
▁нашої	-9.55041
27	-9.5505
▁Play	-9.55069
▁зможете	-9.55098
▁Фото	-9.55195
чу	-9.55313
бл	-9.55351
▁Росії	-9.55409
ове	-9.55426
ы	-9.55542
▁швидкості	-9.55626
▁енергії	-9.55658
ключ	-9.5575
▁знаєте	-9.55755
ери	-9.55775
70	-9.55789
фі	-9.55835
ір	-9.55874
пи	-9.559
▁36	-9.55979
▁пошта	-9.56
▁будемо	-9.56069
▁листопада	-9.56074
▁пароль	-9.56116
▁Бо	-9.5615
Q	-9.5622
▁Система	-9.56239
іння	-9.56267
▁білі	-9.56279
ції	-9.56299
▁панелі	-9.56351
▁сталі	-9.56404
▁мар	-9.56531
іт	-9.56533
кри	-9.56601
ina	-9.56601
▁Японська	-9.56628
08	-9.56642
істю	-9.56679
чки	-9.5672
▁Використання	-9.5684
ус	-9.56862
per	-9.56913
▁хочу	-9.56933
▁пристрою	-9.56951
▁розташування	-9.56953
▁Немає	-9.56965
▁Топ	-9.57024
▁занадто	-9.57146
▁участь	-9.57147
або	-9.57203
▁підтримує	-9.57262
см	-9.57312
▁5.	-9.57328
▁Гостьов	-9.57343
▁версію	-9.57344
▁обмін	-9.57387
▁говорить	-9.57428
▁Мама	-9.5745
якої	-9.57493
▁Бізнес	-9.57557
▁120	-9.57571
▁розміру	-9.5759
▁йде	-9.57597
▁>>	-9.57668
▁кольори	-9.5767
▁рослин	-9.5773
▁одному	-9.57759
наприклад	-9.57838
no	-9.57866
36	-9.57868
▁тест	-9.5795
ження	-9.57991
▁03	-9.58066
пер	-9.5809
бо	-9.58114
▁стероїди	-9.58172
▁150	-9.583
▁Пороми	-9.58302
кг	-9.58426
шт	-9.58498
▁безкоштовний	-9.58525
яку	-9.58527
▁вигляді	-9.58552
ate	-9.58655
▁включають	-9.58659
39	-9.58767
▁Ка	-9.58798
▁переглянути	-9.58819
up	-9.58836
▁місцевих	-9.58884
▁сад	-9.58892
▁Азіатська	-9.58923
▁кількості	-9.58923
▁інструментів	-9.59033
▁грошей	-9.59056
лон	-9.59093
▁Сексуальна	-9.59201
▁сторінку	-9.59216
▁Список	-9.59255
33	-9.59267
▁Сьогодні	-9.59291
▁лютого	-9.59389
▁усіх	-9.59393
уються	-9.5941
▁Ле	-9.59418
▁матері	-9.59469
▁Mar	-9.59516
▁шлях	-9.59635
стер	-9.59654
▁списку	-9.59656
ина	-9.5968
▁прес	-9.59686
▁контролю	-9.59714
▁повернення	-9.59726
ена	-9.59778
▁дитина	-9.5979
▁радіо	-9.59856
▁Те	-9.59926
▁великі	-9.59951
▁йому	-9.59979
тися	-9.59988
▁(15	-9.60108
▁сам	-9.60124
ka	-9.60256
▁(7	-9.603
75	-9.60407
▁захист	-9.60487
чка	-9.60673
▁подорож	-9.60747
▁підвищення	-9.6075
КА	-9.60777
▁стіл	-9.6083
▁карті	-9.60895
▁Кар	-9.60909
раз	-9.60925
▁хоча	-9.6096
буд	-9.60961
▁режим	-9.60967
ила	-9.61197
▁Хоча	-9.6128
io	-9.61299
61	-9.61407
▁отримувати	-9.61415
▁підключення	-9.61434
▁(12	-9.61444
гар	-9.61542
ція	-9.6158
▁працюють	-9.61615
▁категорії	-9.61682
ент	-9.61732
▁(13	-9.61756
▁характеристики	-9.6176
▁простий	-9.61889
▁країн	-9.6189
86	-9.61948
▁дві	-9.61979
72	-9.62005
кер	-9.62137
▁Bitcoin	-9.6219
▁%	-9.62233
▁кімната	-9.62265
▁важко	-9.62331
ee	-9.62333
із	-9.62351
▁\	-9.62392
▁Офіційний	-9.62436
ti	-9.62496
▁існує	-9.62504
▁ризик	-9.62513
▁одяг	-9.62652
28	-9.62655
ве	-9.62686
▁Таким	-9.62723
▁(18	-9.62794
500	-9.62941
▁Gitea	-9.62987
▁уникнути	-9.62987
▁Ж	-9.63016
▁магазин	-9.63093
ги	-9.63146
ТИ	-9.632
▁вік	-9.63207
▁Tube	-9.63237
род	-9.63245
▁Ру	-9.63342
▁4-	-9.63368
▁вашим	-9.63375
ba	-9.6338
▁(0)	-9.63385
▁відгук	-9.63435
▁g	-9.63491
лік	-9.63605
▁якому	-9.63608
▁галузі	-9.63611
роз	-9.63614
▁Вас	-9.63619
65	-9.63697
▁немовля	-9.63704
▁Популярні	-9.63719
91	-9.63733
▁крові	-9.63735
▁камери	-9.63755
мов	-9.63758
▁тиждень	-9.6389
▁t	-9.63901
▁Січень	-9.6394
▁w	-9.63949
▁Кожен	-9.64037
ian	-9.64143
▁флеш	-9.64144
▁збільшення	-9.64318
▁Назва	-9.64334
▁високої	-9.64338
бер	-9.64342
три	-9.64351
лет	-9.64506
▁жорсткий	-9.6452
▁потужність	-9.64534
▁зробив	-9.64536
▁адреса	-9.64582
▁дерев	-9.64626
▁стаття	-9.64732
▁and	-9.64896
▁диск	-9.6502
▁полягає	-9.6502
sh	-9.65053
▁(16	-9.65115
▁ЄС	-9.65295
▁Великобританії	-9.65295
▁Підтримка	-9.65295
▁ваша	-9.65303
іль	-9.65323
▁поля	-9.65362
▁січня	-9.65369
▁In	-9.65411
▁потреб	-9.65425
▁Copyright	-9.65436
трим	-9.65438
бу	-9.65462
▁басейн	-9.65618
▁розділ	-9.65658
код	-9.65861
▁спробувати	-9.65874
▁Ін	-9.65971
▁джерело	-9.65988
▁доставка	-9.66036
▁березня	-9.66076
▁SD	-9.6608
▁самі	-9.66216
▁альбому	-9.66388
▁долар	-9.66513
▁2009	-9.66763
▁лінія	-9.66864
▁Free	-9.66928
▁приймати	-9.66944
▁переклад	-9.66972
di	-9.67009
файли	-9.67019
▁со	-9.67083
▁захід	-9.67094
▁70	-9.67197
▁разі	-9.67263
▁торт	-9.67264
ion	-9.67354
▁перегляду	-9.67445
▁довго	-9.67516
▁точки	-9.67563
оль	-9.67577
▁міні	-9.67586
▁тоді	-9.67606
51	-9.67715
▁змішан	-9.67802
▁інтерфейс	-9.67972
52	-9.68049
▁Су	-9.68105
▁погоди	-9.68153
▁промисловості	-9.68169
▁видів	-9.6819
▁Ч	-9.68211
▁жовтня	-9.68253
▁Масаж	-9.68375
ана	-9.68379
▁надання	-9.68436
Me	-9.68466
▁Li	-9.6856
кар	-9.68653
ent	-9.68676
▁~	-9.68713
▁витрати	-9.68751
▁оплати	-9.68775
нос	-9.688
ке	-9.6883
▁проект	-9.68836
▁домашніх	-9.68851
▁нашим	-9.68882
од	-9.68944
▁проекту	-9.68959
▁адресу	-9.68992
▁ч	-9.69002
тка	-9.69018
ща	-9.69066
▁труб	-9.69075
▁дизайну	-9.69112
▁придбати	-9.69116
▁год	-9.6915
▁хоче	-9.69282
jpg	-9.69337
-10	-9.69412
da	-9.6942
▁Apple	-9.69426
жа	-9.69457
▁Дизайн	-9.69489
▁травня	-9.69515
ян	-9.69526
age	-9.69636
▁постійно	-9.6966
▁ТВ	-9.69782
нка	-9.69861
▁блондинка	-9.69863
▁НЕ	-9.69892
ант	-9.69906
тра	-9.70024
26	-9.70037
рд	-9.70045
▁камера	-9.70094
під	-9.70118
ip	-9.70138
▁син	-9.70221
▁призначення	-9.70251
▁матеріалів	-9.70312
49	-9.70394
▁симптоми	-9.70423
▁звичайно	-9.70451
▁молодий	-9.70467
▁(20	-9.7053
▁Міжнародний	-9.70586
▁Європі	-9.70601
▁Міжнародна	-9.70641
▁покриття	-9.70703
▁YouTube	-9.70747
нт	-9.70896
ців	-9.71033
▁Барселоні	-9.71196
▁вниз	-9.71213
em	-9.7123
▁коледж	-9.71263
ував	-9.71278
▁показує	-9.71301
▁жир	-9.71302
▁шт	-9.7138
▁бар	-9.71479
▁кор	-9.71544
▁Нью	-9.71555
▁Завдяки	-9.71572
200	-9.71587
пі	-9.71591
79	-9.71608
▁гру	-9.71658
▁тиск	-9.71663
▁видалення	-9.71723
▁прав	-9.71771
°	-9.71786
▁необхідні	-9.71787
▁поле	-9.71792
▁Червоні	-9.71874
▁жінка	-9.71895
▁кошик	-9.71941
▁Instagram	-9.71949
▁Модель	-9.71956
38	-9.71979
стр	-9.72021
▁Ласкаво	-9.72025
▁положення	-9.72102
▁комплекс	-9.72105
альний	-9.72123
фа	-9.72165
▁Більш	-9.7223
▁якого	-9.72251
шки	-9.72348
▁вікна	-9.72379
▁дитини	-9.72405
▁Старий	-9.72526
▁6.	-9.72621
one	-9.72634
▁стає	-9.72729
▁правила	-9.72862
▁країні	-9.72863
▁основні	-9.72866
44	-9.72913
ци	-9.72939
пис	-9.72946
атися	-9.73059
шу	-9.7317
▁друку	-9.73178
▁крем	-9.73316
тан	-9.73376
▁Купити	-9.73445
▁абсолютно	-9.73473
▁рожевий	-9.73475
▁Опис	-9.73525
▁Долар	-9.73627
пере	-9.73666
▁річ	-9.73675
▁стосується	-9.73704
фер	-9.73712
ve	-9.7372
▁вимоги	-9.73739
content	-9.73781
▁Політика	-9.73785
▁торгівлі	-9.73785
ера	-9.73826
лер	-9.73837
мент	-9.73854
Ви	-9.73855
▁контроль	-9.73866
ER	-9.7394
▁Італія	-9.73964
▁класу	-9.73968
▁пост	-9.73989
▁Microsoft	-9.74013
сайту	-9.74022
▁https	-9.74036
▁hotels	-9.74052
▁Мій	-9.74071
▁чоловік	-9.74086
55	-9.74141
▁па	-9.74142
▁Кор	-9.74155
▁захищені	-9.74197
wp	-9.74238
оп	-9.7424
▁ноги	-9.74246
ист	-9.74308
▁відповідає	-9.74399
тин	-9.74405
▁Car	-9.74429
▁Колір	-9.74479
ден	-9.7448
▁Перший	-9.74549
ган	-9.74575
яв	-9.74691
▁клітин	-9.74814
▁Більше	-9.74844
▁супер	-9.74917
▁ціною	-9.74919
tor	-9.7495
▁функцій	-9.75101
▁Усі	-9.75126
як	-9.75135
▁метод	-9.75138
▁r	-9.7518
68	-9.75184
▁персональних	-9.75222
Ж	-9.75233
ацію	-9.75243
53	-9.75256
q	-9.753
▁речей	-9.75333
▁арбітраж	-9.75387
▁Жовтень	-9.75412
▁рожеві	-9.75418
нг	-9.75426
▁більшість	-9.75465
ni	-9.75488
▁Потім	-9.75568
▁збільшити	-9.75569
▁подорожі	-9.75575
▁став	-9.7559
07	-9.75592
ab	-9.756
хід	-9.75663
бор	-9.75796
▁Ще	-9.75803
▁взуття	-9.75803
ang	-9.75814
son	-9.75856
▁місяці	-9.75864
альні	-9.7594
▁Бен	-9.75949
48	-9.75979
▁рух	-9.76013
▁пер	-9.76086
▁Перед	-9.76111
▁спасибі	-9.76118
▁залежить	-9.76276
▁основному	-9.76289
▁спектр	-9.76292
▁безліч	-9.76363
цій	-9.76372
нути	-9.76434
upload	-9.76436
▁сторінці	-9.76449
▁Вересень	-9.76453
▁мова	-9.76503
вання	-9.76525
▁втрати	-9.76552
▁Білявка	-9.76558
▁готові	-9.76599
▁речовин	-9.76626
▁події	-9.76628
ot	-9.76768
▁Попередня	-9.7683
▁ними	-9.7684
▁Історія	-9.76842
▁доведеться	-9.7691
▁години	-9.76942
▁Останні	-9.76958
▁мл	-9.76963
▁значно	-9.76965
▁парк	-9.76971
▁усіма	-9.76973
▁електро	-9.77115
▁друзі	-9.77131
▁липня	-9.77235
Переглянути	-9.77304
ig	-9.77369
▁реєстрації	-9.77391
▁вимагає	-9.77441
▁осіб	-9.77478
▁основних	-9.77509
▁xHamster	-9.77547
▁грудня	-9.7756
▁Введіть	-9.77575
▁частині	-9.77601
▁International	-9.77602
ютера	-9.77622
олог	-9.77625
▁дивитися	-9.77634
VPN	-9.77703
▁Грудень	-9.77709
▁гостей	-9.77717
▁Може	-9.77719
▁причин	-9.77774
▁Безкоштовно	-9.77843
▁результатів	-9.77873
95	-9.77886
▁становить	-9.77948
and	-9.77953
▁Червень	-9.7803
▁заходів	-9.78043
▁Бар	-9.78057
ської	-9.78096
▁автобус	-9.78141
▁знаю	-9.78143
▁тестування	-9.78145
▁такий	-9.78162
71	-9.78168
▁Picture	-9.7827
▁Linux	-9.78299
▁форматі	-9.78338
▁продаж	-9.78342
▁вгору	-9.78359
▁навантаження	-9.78363
ані	-9.78366
land	-9.78366
▁вироби	-9.78471
цію	-9.78534
▁велосипед	-9.78541
▁Додати	-9.78583
▁діяльності	-9.78592
▁Білий	-9.78626
пр	-9.78678
▁весь	-9.78684
58	-9.78734
▁мережу	-9.78736
ського	-9.78778
куп	-9.78784
▁тканини	-9.78976
▁коментарі	-9.7903
▁Бог	-9.79072
▁підтримку	-9.79079
be	-9.79156
▁місць	-9.79161
▁Ст	-9.79195
▁ряд	-9.79196
ЕР	-9.79233
▁карта	-9.79263
▁Ключов	-9.7927
▁насолоджуватися	-9.79404
▁варіанти	-9.79454
▁Світ	-9.79639
▁Ар	-9.79705
▁замовчуванням	-9.7973
▁Ro	-9.79748
▁Са	-9.79786
▁надати	-9.79864
▁Па	-9.79893
▁Ба	-9.79946
▁центрі	-9.79969
рен	-9.7997
▁Інформаційн	-9.79976
лов	-9.79978
▁червня	-9.79983
▁Повідомлення	-9.80018
▁широкий	-9.80037
▁ефект	-9.80048
со	-9.8008
▁витрат	-9.80148
▁Дівчина	-9.80222
▁Кращий	-9.80228
84	-9.80233
▁Основні	-9.80253
хи	-9.80263
▁рецепт	-9.80272
▁таблетки	-9.80298
ai	-9.80298
▁росту	-9.80299
▁кут	-9.80313
▁дорослих	-9.80446
▁йти	-9.80467
▁Архіви	-9.80548
▁іграшки	-9.80601
▁препарат	-9.80611
▁Три	-9.80616
▁сайтів	-9.80635
▁тощо	-9.80648
92	-9.80669
▁любитель	-9.80689
▁додаткові	-9.80716
▁умов	-9.80723
На	-9.80753
▁запропонувати	-9.80798
▁продуктивність	-9.80803
▁2-	-9.8085
сте	-9.80869
ите	-9.8089
ети	-9.80943
▁страви	-9.8095
▁запитання	-9.81002
▁доступна	-9.81037
▁процесу	-9.81062
яні	-9.81107
▁понад	-9.81195
▁насправді	-9.81212
▁Центр	-9.8123
▁Отримати	-9.81311
ясо	-9.81325
41	-9.81374
ko	-9.81402
▁передачі	-9.81476
ha	-9.81479
▁Мітки	-9.8155
▁for	-9.81569
ty	-9.81578
▁Університет	-9.81583
▁використанням	-9.81609
67	-9.81686
▁питань	-9.81711
▁компаній	-9.81712
ад	-9.81741
▁Автор	-9.81776
▁букет	-9.81777
▁Відгуки	-9.81814
▁складається	-9.81823
▁Управління	-9.81824
▁сезон	-9.81839
тки	-9.81868
▁каталог	-9.81868
▁хотів	-9.81962
▁завдання	-9.82072
▁червоний	-9.82099
▁Росія	-9.82105
▁Захист	-9.82129
▁боку	-9.82207
▁MPEG	-9.82273
▁країнах	-9.82339
▁Рожев	-9.82351
▁Чорна	-9.82355
▁деталі	-9.8238
▁біля	-9.82471
80	-9.82475
▁товар	-9.8248
стан	-9.82502
▁Гості	-9.82571
▁азіатська	-9.82717
пу	-9.8274
▁суд	-9.82771
аються	-9.82793
▁поруч	-9.82815
▁полі	-9.8285
▁re	-9.82874
▁частиною	-9.82885
▁вплив	-9.82902
▁мобільних	-9.82939
▁структура	-9.82984
нім	-9.83115
▁ідеї	-9.83137
▁увазі	-9.83139
om	-9.83243
▁клас	-9.83329
бе	-9.83354
▁власні	-9.83383
▁(8	-9.83449
lu	-9.83488
▁фільтр	-9.83521
явився	-9.83585
▁Home	-9.83634
▁території	-9.83647
нд	-9.83728
▁очищення	-9.83741
▁краля	-9.83839
ел	-9.83915
хо	-9.83921
▁трав	-9.83986
▁отримав	-9.83988
▁телевізор	-9.84032
▁зрозуміти	-9.84073
▁Мі	-9.8415
▁Безкоштовний	-9.84159
▁спорту	-9.84195
яс	-9.84202
▁своєї	-9.84329
ak	-9.84379
Підлітки	-9.84393
▁Вілли	-9.84421
▁App	-9.8453
нки	-9.84547
бір	-9.84553
▁агентств	-9.84576
▁більшості	-9.84638
▁Компанія	-9.84673
▁засобів	-9.84758
▁подобається	-9.84759
▁мов	-9.84829
▁потік	-9.84858
ас	-9.84865
ТО	-9.84899
▁250	-9.849
▁порад	-9.84969
лися	-9.85061
99	-9.85072
▁Безкоштовна	-9.85104
▁торгівля	-9.85107
▁душ	-9.85294
43	-9.85313
▁48	-9.8534
нні	-9.85351
▁000	-9.85369
▁Висока	-9.85431
▁одну	-9.85457
82	-9.85467
▁тиску	-9.85473
▁бачити	-9.85536
▁високий	-9.85553
▁пором	-9.85575
▁приготування	-9.85622
▁Me	-9.85627
▁кожному	-9.85632
▁віку	-9.85678
пон	-9.85782
▁виробництво	-9.85903
ts	-9.85917
▁стін	-9.85932
▁Найбільш	-9.85968
▁актив	-9.85998
▁ідеально	-9.86365
▁k	-9.86388
▁Існує	-9.86405
рон	-9.86472
▁відвідати	-9.86587
▁ЩО	-9.8665
▁1970-2016	-9.86667
▁відкрити	-9.86748
▁знаходитесь	-9.86757
▁Ха	-9.86761
▁2008	-9.86831
▁велика	-9.86844
▁Га	-9.86853
ant	-9.86873
світ	-9.86906
▁(25	-9.86963
▁особливості	-9.86972
лог	-9.86994
▁старий	-9.87023
ist	-9.87098
▁закон	-9.87144
▁порт	-9.87222
▁пляж	-9.87265
▁згідно	-9.87283
▁поставити	-9.87397
ліз	-9.87435
▁житті	-9.8755
▁платформи	-9.8763
▁Краля	-9.87646
пкс	-9.87675
▁висока	-9.87701
-3	-9.87739
▁тестостерону	-9.87814
▁поточн	-9.87865
▁медіа	-9.87929
▁Див	-9.87937
▁руху	-9.87975
жу	-9.8808
63	-9.88091
ур	-9.88097
▁кухня	-9.88168
uk	-9.88188
ву	-9.88196
▁EUR	-9.88264
▁найкращі	-9.88295
▁рекомендується	-9.8835
▁ам	-9.88402
▁ресторан	-9.88454
sa	-9.8848
▁дво	-9.88557
ген	-9.88562
54	-9.8859
▁блок	-9.88664
83	-9.88681
recetas	-9.88704
▁скільки	-9.88727
ск	-9.88759
▁порівняння	-9.88792
cocina	-9.88794
oo	-9.88825
▁відомий	-9.88844
▁×	-9.88851
▁Правила	-9.88938
▁народився	-9.88975
▁мед	-9.88995
▁необхідності	-9.89006
▁ОС	-9.89046
ках	-9.89057
faciles	-9.89062
▁(17	-9.89169
ацій	-9.89243
bi	-9.89285
▁j	-9.89301
стро	-9.8931
▁отримує	-9.89323
▁власний	-9.89511
▁іншим	-9.8954
▁смартфон	-9.89568
▁Німеччина	-9.8958
81	-9.89613
▁визначити	-9.89643
▁досягти	-9.89701
▁мало	-9.89717
▁An	-9.89739
ковий	-9.89743
год	-9.89781
▁клієнта	-9.89788
▁Там	-9.89816
▁ма	-9.89879
ит	-9.89981
▁блог	-9.90004
▁рот	-9.90074
ап	-9.90098
▁Останнє	-9.90102
▁читання	-9.90152
▁Jan	-9.90263
▁64	-9.9028
жен	-9.90387
▁Продукти	-9.90405
▁рослини	-9.90407
форм	-9.90412
▁Інформація	-9.90417
▁2000	-9.90444
▁побічні	-9.90456
кова	-9.90571
▁400	-9.90671
▁образ	-9.90673
вод	-9.90677
▁прокат	-9.90752
стю	-9.90772
▁Xvideos	-9.90781
▁властивості	-9.90784
▁засіб	-9.90813
res	-9.90861
▁випадках	-9.90872
▁скачати	-9.90971
▁цілей	-9.90991
▁тримати	-9.91031
ana	-9.91033
ань	-9.91076
▁біль	-9.91171
бра	-9.91315
ика	-9.91372
▁су	-9.91385
▁соціальних	-9.91422
▁прийняти	-9.9143
▁аеропорт	-9.91444
гляд	-9.91469
ир	-9.91494
ства	-9.91638
▁грі	-9.91673
▁володіє	-9.9179
се	-9.91837
89	-9.91841
▁див	-9.91844
▁тижнів	-9.91859
▁тварини	-9.91863
▁смак	-9.91875
ub	-9.91893
▁Інтернету	-9.91927
▁останні	-9.91976
▁нержавіючої	-9.91981
▁контакт	-9.92
▁користуватися	-9.92068
▁плаття	-9.92071
▁депозит	-9.92248
▁гор	-9.92261
▁WordPress	-9.92315
▁неї	-9.92344
▁кращі	-9.92348
▁теж	-9.92492
▁Латина	-9.92532
▁дістатися	-9.92536
▁допомоги	-9.92623
из	-9.92628
▁способи	-9.92716
▁міст	-9.92762
ови	-9.92806
▁апарат	-9.92848
▁Хто	-9.92856
ТЬ	-9.92876
▁Файл	-9.92884
ack	-9.92885
▁практично	-9.92902
);	-9.92928
▁хотіли	-9.92996
▁Телефон	-9.93077
▁цією	-9.93099
▁Mi	-9.93113
▁Ді	-9.93179
лег	-9.93189
ation	-9.93267
▁Британія	-9.93276
▁Дізнайтеся	-9.93276
▁історії	-9.93276
▁(24	-9.93295
▁думаю	-9.93307
▁рішень	-9.9337
▁тур	-9.93371
уємо	-9.93467
▁ВИ	-9.93525
яка	-9.93585
▁сталь	-9.93621
алі	-9.93645
▁досягнення	-9.93654
▁варіантів	-9.93657
РА	-9.93713
▁залежності	-9.93752
▁всередині	-9.93839
▁надається	-9.93851
▁книги	-9.9389
66	-9.93923
▁канали	-9.93929
▁аксесуари	-9.9393
▁виберіть	-9.93946
▁Завантаження	-9.93955
▁страв	-9.93972
▁одно	-9.94
▁кроликів	-9.94001
▁група	-9.94041
▁схід	-9.94112
▁Експерт	-9.94122
▁треба	-9.94122
др	-9.94178
▁Пол	-9.94221
▁Со	-9.94223
▁оголошення	-9.94223
our	-9.94236
▁матеріалу	-9.94285
▁станції	-9.94319
MP	-9.94344
▁зірки	-9.94346
ут	-9.94366
▁Аеропорт	-9.94399
▁gets	-9.9441
▁покрив	-9.94492
▁знак	-9.9452
уч	-9.94544
зо	-9.94581
▁Гу	-9.94594
▁найкраще	-9.94622
▁фільми	-9.94679
▁тон	-9.94701
сер	-9.94708
▁вимог	-9.94726
▁(23	-9.94814
язки	-9.94839
▁Матеріал	-9.94862
▁дружина	-9.9488
▁Yobt	-9.9488
▁всім	-9.9489
▁ТБ	-9.94964
37	-9.94993
▁ІЗ	-9.94999
▁розділі	-9.95021
AR	-9.95036
▁насос	-9.95051
▁порошок	-9.9507
▁спеціальні	-9.9507
▁Вечірка	-9.95084
▁ан	-9.95135
кор	-9.95139
▁Be	-9.95255
▁допомогу	-9.95261
фе	-9.95268
ських	-9.95297
62	-9.95305
кові	-9.95365
▁налаштувати	-9.95436
віс	-9.95438
рес	-9.95451
▁запуску	-9.95547
▁Різдво	-9.95548
▁самостійно	-9.95564
▁порушення	-9.9557
▁Pi	-9.95585
▁Beach	-9.95658
flowers	-9.95659
▁мікро	-9.95661
ову	-9.95668
▁ось	-9.95706
▁метою	-9.95741
▁Створення	-9.95759
▁готелів	-9.95782
▁Загальна	-9.95805
вся	-9.95809
▁вага	-9.9581
▁пі	-9.95833
▁кв	-9.95885
▁Доданий	-9.95893
ga	-9.959
▁сервер	-9.95922
▁трьох	-9.95932
▁Знайти	-9.95932
▁Ангел	-9.95943
▁Авто	-9.95976
сайті	-9.96034
▁Ю	-9.96078
▁ф	-9.96087
лем	-9.96089
vi	-9.96131
▁ла	-9.96137
▁проведення	-9.96158
▁виглядає	-9.96229
TV	-9.9623
bo	-9.96231
Де	-9.96276
▁купон	-9.96285
ex	-9.96298
▁інструкція	-9.96317
рин	-9.9636
енд	-9.96367
гі	-9.96424
КИ	-9.96429
▁повідомлень	-9.96464
вид	-9.96466
▁вирішити	-9.9651
▁відкритий	-9.96531
▁виглядати	-9.96553
▁аналіз	-9.96584
▁народ	-9.96659
▁ефективно	-9.96689
min	-9.9683
тур	-9.96894
▁бал	-9.96948
▁точно	-9.9696
▁XP	-9.9701
▁супутникового	-9.97079
ps	-9.97118
рів	-9.97229
▁Європа	-9.97306
пад	-9.97322
▁Ку	-9.97337
▁Ме	-9.97382
▁зору	-9.9741
▁додаткової	-9.97411
ity	-9.97416
▁Хо	-9.97431
▁тренування	-9.97483
▁добу	-9.97488
▁діти	-9.975
▁Карти	-9.97533
▁Відстань	-9.97579
лад	-9.97707
▁частин	-9.97707
▁Bo	-9.9772
▁Підлітки	-9.97758
▁погляд	-9.97766
Романтика	-9.97778
Й	-9.97794
▁маєте	-9.9784
▁високу	-9.97873
ci	-9.97943
▁визначення	-9.97971
▁Sh	-9.97975
▁здатність	-9.97977
▁вибору	-9.97996
▁стану	-9.98078
▁помилки	-9.98085
ІВ	-9.98107
▁ним	-9.98166
▁Forex	-9.98221
чен	-9.98242
▁(18+)	-9.98265
▁заходи	-9.98295
▁Live	-9.98304
42	-9.98344
ner	-9.98354
▁достатньо	-9.98365
▁обмеження	-9.98374
▁широко	-9.98438
▁формі	-9.98544
єру	-9.98564
дов	-9.98573
56	-9.98596
▁спочатку	-9.9866
▁клієнт	-9.98717
ще	-9.98723
тен	-9.9874
▁карт	-9.98743
▁іноді	-9.98761
▁мобільний	-9.98768
шка	-9.98792
▁помер	-9.98806
▁кабель	-9.98848
екс	-9.98923
▁вміст	-9.98971
▁мг	-9.99002
▁теми	-9.99003
▁Номери	-9.99047
▁ISO	-9.99085
▁HTTPS	-9.99095
▁комплект	-9.9914
▁доставку	-9.99155
готелі	-9.99159
▁конвертувати	-9.99165
рож	-9.99224
▁квитків	-9.99251
ряд	-9.99266
▁Аль	-9.99298
вали	-9.993
▁новин	-9.9931
▁Липень	-9.99355
▁крім	-9.99402
▁ДО	-9.99415
ea	-9.99453
тяг	-9.99457
▁хочуть	-9.99472
▁Win	-9.99542
▁процесор	-9.99551
▁Добре	-9.99608
▁пункт	-9.99635
▁дію	-9.99636
▁дозволяють	-9.99652
▁анти	-9.99662
ja	-9.99685
▁входить	-9.99749
▁33	-9.99772
▁нову	-9.99774
ya	-9.99819
▁Ah	-9.99857
▁різними	-9.99941
▁Святого	-9.99943
▁краси	-9.99948
▁друг	-9.99975
лей	-9.99998
▁частину	-10.0002
▁копіювання	-10.0006
▁Mo	-10.0008
▁GTS	-10.001
▁продуктивності	-10.0016
▁Прогноз	-10.0025
ay	-10.0026
▁жиру	-10.0026
▁Se	-10.0034
уватися	-10.0041
▁подарунки	-10.0045
▁розповідь	-10.0046
▁зовсім	-10.0055
▁форма	-10.0055
▁га	-10.0061
mi	-10.0068
тів	-10.008
▁(3)	-10.008
▁чотири	-10.0084
▁Іспанія	-10.0087
94	-10.0088
▁Контактна	-10.0091
▁квитки	-10.0096
ями	-10.0099
▁Наступна	-10.0109
▁SR	-10.0117
віт	-10.0121
les	-10.0124
▁бюлетень	-10.0126
бар	-10.0126
▁живлення	-10.0127
▁редактор	-10.013
▁елементи	-10.0132
▁велику	-10.0136
▁проживання	-10.014
▁руки	-10.0142
пе	-10.0142
▁наук	-10.0151
pa	-10.0155
▁Ан	-10.0155
ений	-10.0155
93	-10.0164
пір	-10.0164
▁Валентина	-10.0167
▁реальність	-10.0167
▁поліпшення	-10.0168
400	-10.017
▁Go	-10.0171
do	-10.0171
▁34	-10.0172
▁міг	-10.0177
аг	-10.0178
▁мета	-10.018
73	-10.0183
va	-10.0184
▁Любителі	-10.0185
▁каже	-10.0187
▁замість	-10.0188
▁середовища	-10.0188
ходи	-10.0188
рит	-10.0191
▁результат	-10.0192
ек	-10.0197
▁Vi	-10.0197
▁сказала	-10.0197
op	-10.0206
▁розширення	-10.021
▁DVD	-10.0211
▁55	-10.0213
▁студентів	-10.0236
лл	-10.0236
▁історія	-10.0238
ника	-10.0243
▁7.	-10.0247
▁перекладу	-10.0247
▁уваги	-10.0249
▁сир	-10.0254
▁гвоздики	-10.0254
▁картки	-10.0259
▁мову	-10.0261
▁температури	-10.0265
▁особи	-10.0266
ини	-10.0268
▁чай	-10.0272
▁ПВХ	-10.0279
▁відновити	-10.028
▁знижка	-10.0282
мір	-10.0288
▁планшет	-10.0288
▁Можна	-10.029
0.00	-10.029
▁простір	-10.0293
0.0	-10.0298
2016	-10.0299
ice	-10.0301
▁встановлення	-10.0302
▁дій	-10.0305
▁їзди	-10.0311
щі	-10.0313
▁кінці	-10.0316
▁ангел	-10.0316
зу	-10.0317
ики	-10.032
▁Ім	-10.0324
див	-10.0327
▁Звичайно	-10.0331
▁організму	-10.0337
▁под	-10.034
▁(29	-10.034
97	-10.034
▁знання	-10.0341
▁лотереї	-10.0341
▁першого	-10.0349
▁потрібні	-10.0352
▁Офіс	-10.0352
▁говорити	-10.0352
▁ціну	-10.0358
ash	-10.0358
▁жив	-10.0362
▁функція	-10.0365
▁жити	-10.0367
ЛО	-10.0371
▁напої	-10.0374
▁Теги	-10.0375
ix	-10.0378
▁правил	-10.0379
▁поїзд	-10.0379
:30	-10.0383
▁наявності	-10.0384
▁Супер	-10.039
раж	-10.039
▁ринок	-10.0393
шир	-10.041
▁спорт	-10.041
▁серця	-10.0416
▁Ро	-10.0416
▁способів	-10.0425
▁ефектів	-10.0432
▁Di	-10.0438
▁технологій	-10.0445
▁38	-10.0449
▁шоу	-10.0451
▁руками	-10.0454
▁відстеження	-10.0456
▁Сер	-10.0458
▁прийом	-10.0463
▁Пам	-10.0472
лин	-10.0475
sk	-10.0481
магазин	-10.0487
▁захворювань	-10.0487
▁Труби	-10.0488
PSK	-10.0489
▁характер	-10.0492
▁Тур	-10.0503
Ю	-10.0504
▁Group	-10.0506
▁справа	-10.0507
▁Який	-10.0507
▁ліній	-10.0508
ng	-10.0511
▁футбол	-10.0511
▁порно	-10.0512
▁годинник	-10.0514
▁Ar	-10.0517
▁друзів	-10.0521
▁проте	-10.0521
▁лазерн	-10.0528
▁виробів	-10.053
ho	-10.053
▁відмовитися	-10.053
▁цикл	-10.0531
▁сайти	-10.0539
▁порівнянні	-10.054
ум	-10.054
ємо	-10.0544
▁зобов	-10.0547
▁зможуть	-10.0551
▁Дружина	-10.0557
йн	-10.0559
▁позиції	-10.0561
▁результаті	-10.0566
🚙	-10.0572
іст	-10.0572
▁сили	-10.0574
▁ліс	-10.0575
▁Ци	-10.0576
▁Ra	-10.0577
▁вправ	-10.0583
▁здається	-10.0586
▁At	-10.0587
▁лікар	-10.0592
▁подивитися	-10.0593
▁машину	-10.06
▁фільм	-10.0603
тар	-10.0604
ився	-10.0607
▁800	-10.0611
▁Китаї	-10.0614
▁дозволить	-10.0615
дан	-10.0618
▁37	-10.0621
▁повітрі	-10.0625
are	-10.0628
▁Web	-10.0632
▁Крок	-10.0635
▁зробили	-10.0636
▁ключ	-10.0638
тя	-10.0641
▁сп	-10.0641
▁маємо	-10.0642
▁ноутбук	-10.0646
▁Отримайте	-10.0647
▁найкращий	-10.0651
78	-10.0651
▁Розміри	-10.0661
▁EA	-10.0661
▁Да	-10.0661
▁Більшість	-10.0662
▁потрібна	-10.0668
gu	-10.067
▁роботі	-10.067
▁телефони	-10.0674
▁Всього	-10.0674
▁Налаштування	-10.0684
ph	-10.0685
▁досліджень	-10.0689
▁синій	-10.0693
IN	-10.0698
47	-10.0704
▁керівництво	-10.0716
вал	-10.0716
сайтів	-10.0716
дається	-10.0719
▁Квітень	-10.0721
Домашня	-10.0722
▁Ad	-10.0727
▁поверхні	-10.074
▁кількістю	-10.0743
▁потужності	-10.0744
GB	-10.0749
▁Секс	-10.0752
▁навички	-10.0754
▁Показати	-10.076
▁Казино	-10.0764
▁приймає	-10.0765
▁Частина	-10.0768
ць	-10.0779
▁флорист	-10.0782
▁усі	-10.0787
▁користувачі	-10.0793
▁звіт	-10.0794
зер	-10.0796
язи	-10.08
▁CO	-10.0804
▁Vintage	-10.0808
▁Навіть	-10.0808
▁називається	-10.0808
▁одягу	-10.0815
▁Жовті	-10.0823
▁інше	-10.0824
▁He	-10.0832
▁ПО	-10.0832
▁очі	-10.0833
▁потреби	-10.0833
жив	-10.0833
▁удар	-10.0836
уть	-10.0839
="2	-10.084
▁охорони	-10.084
▁Постачальники	-10.0847
▁створювати	-10.0853
лювати	-10.0855
▁серверів	-10.0858
art	-10.0859
▁Жінка	-10.0862
out	-10.0878
най	-10.0879
▁вантажів	-10.0886
▁відправлення	-10.0892
▁Через	-10.0895
▁Вт	-10.0895
тель	-10.0902
▁іншому	-10.0903
▁кур	-10.0905
▁кра	-10.0915
▁Оскільки	-10.0918
ow	-10.0927
▁весілля	-10.0928
▁вправи	-10.0928
▁..."	-10.093
▁пояс	-10.0932
▁50%	-10.0932
▁вода	-10.0934
▁оп	-10.0934
▁районі	-10.0935
аз	-10.0936
▁викликає	-10.0939
▁фітнес	-10.0939
▁Resort	-10.0939
▁аматорський	-10.094
▁IOS	-10.0941
▁компоненти	-10.0946
▁масло	-10.0948
фік	-10.095
▁двері	-10.095
▁одне	-10.0952
▁маркетингу	-10.0952
▁призначений	-10.0955
▁організації	-10.0961
▁виготовлення	-10.0962
нк	-10.0963
▁наскільки	-10.097
нер	-10.0973
▁Ma	-10.0976
▁Проте	-10.0976
▁Ра	-10.0977
▁букетів	-10.0979
ска	-10.0979
▁Франція	-10.0984
теся	-10.0991
▁Поради	-10.0996
▁Gets	-10.1
▁провідних	-10.1003
▁одночасно	-10.1008
za	-10.1013
▁друзями	-10.1018
▁Чоловіки	-10.1022
▁упаковки	-10.1028
▁фотографій	-10.1029
▁сторінок	-10.1032
▁успіху	-10.1033
дія	-10.1035
▁відстані	-10.1039
▁такого	-10.1044
▁UAH	-10.1049
нення	-10.105
▁la	-10.1055
▁двигун	-10.1056
▁типи	-10.1059
▁школи	-10.1061
▁цікаво	-10.1061
mp	-10.1063
▁Брюнетка	-10.1072
▁перевірки	-10.1072
рис	-10.1072
сп	-10.108
▁75	-10.1083
▁тренер	-10.1083
▁всю	-10.1083
▁спеціально	-10.1084
AN	-10.109
▁пар	-10.1091
▁чергу	-10.1092
▁розробки	-10.1094
▁море	-10.1095
▁вашими	-10.1097
▁Оновлення	-10.1097
▁експерт	-10.1101
▁суму	-10.1101
▁сукні	-10.1105
▁Татуювання	-10.1105
▁щодня	-10.1105
▁надзвичайно	-10.1108
▁Тим	-10.1108
▁Сайт	-10.1112
ley	-10.1112
▁мас	-10.1115
▁Ha	-10.1118
▁OS	-10.112
▁Бу	-10.1124
ies	-10.1125
▁LTD	-10.1128
▁очей	-10.1128
▁шляху	-10.1137
▁директор	-10.1139
кий	-10.1139
▁розум	-10.1142
▁клапан	-10.1143
міс	-10.1143
бол	-10.1146
▁Програми	-10.115
▁настільки	-10.1151
▁Перевірте	-10.1151
▁Каталог	-10.1161
▁Road	-10.1162
▁панель	-10.1166
ster	-10.1166
▁чудово	-10.1169
®	-10.1175
▁знає	-10.1177
nd	-10.1178
▁землі	-10.1184
ill	-10.1189
ованих	-10.1192
▁сексуальна	-10.1195
▁перегляд	-10.1196
▁Їх	-10.1201
▁однією	-10.1206
▁Створити	-10.1217
▁застосовується	-10.1218
▁Джон	-10.1219
▁ліки	-10.1221
OS	-10.1229
▁Най	-10.1234
▁речовини	-10.1235
▁піти	-10.1236
▁високою	-10.1236
овим	-10.1237
▁Мобільний	-10.124
▁сніданок	-10.124
▁URL	-10.124
▁змогу	-10.124
▁думаєте	-10.1241
▁провести	-10.1242
пан	-10.1242
▁довжина	-10.1244
▁Чоловік	-10.1245
▁діє	-10.1251
▁батареї	-10.1251
▁ефективність	-10.1252
ювання	-10.1252
▁розташовані	-10.1252
we	-10.1258
ara	-10.126
він	-10.126
▁Перейти	-10.1263
анг	-10.1268
▁кров	-10.127
▁доларів	-10.1275
ров	-10.1276
98	-10.1278
▁масла	-10.1278
АН	-10.1279
чені	-10.128
▁Залізничн	-10.129
▁нова	-10.1294
▁відправити	-10.1296
sta	-10.1296
▁Арбітраж	-10.1297
▁усього	-10.1297
▁Спорт	-10.1302
▁логотип	-10.1303
ово	-10.1304
арт	-10.1307
▁Koh	-10.131
▁Перш	-10.131
IP	-10.131
діаграма	-10.1311
▁плат	-10.1313
▁Умови	-10.1315
▁мереж	-10.1317
od	-10.1318
▁форм	-10.1322
▁якій	-10.1324
▁приклад	-10.133
▁редагування	-10.1331
явилася	-10.1332
ічний	-10.1334
IS	-10.134
имо	-10.134
ard	-10.1344
▁LED	-10.1345
con	-10.1351
▁чудовий	-10.1354
▁покупки	-10.1354
▁Тільки	-10.1355
▁аромат	-10.1356
▁тепло	-10.1359
▁рази	-10.136
▁глобальн	-10.1366
▁відвідування	-10.1366
▁шукаєте	-10.1368
час	-10.1372
▁Lo	-10.1372
59	-10.1376
▁робочий	-10.1376
▁акваріум	-10.1378
АР	-10.138
▁двома	-10.1381
▁коштів	-10.1381
▁ск	-10.1382
▁09:	-10.1386
▁сто	-10.1386
▁кредит	-10.1388
▁браузер	-10.1392
▁чорна	-10.14
▁Po	-10.14
▁ньому	-10.1401
▁ди	-10.1401
сія	-10.1404
До	-10.1407
▁110	-10.1409
che	-10.1419
▁Місто	-10.1419
▁викликати	-10.1421
рей	-10.1423
cm	-10.1424
-5	-10.1425
▁містять	-10.143
пор	-10.1433
рив	-10.1436
іл	-10.1442
ниця	-10.1446
▁Гар	-10.1446
кро	-10.145
▁Російська	-10.1452
▁Червоний	-10.1458
▁Red	-10.1466
▁цілому	-10.1475
нок	-10.1478
▁Наступний	-10.1481
▁хтось	-10.1483
▁React	-10.1485
конфіденційність	-10.1485
▁тисяч	-10.1489
▁менеджер	-10.1491
иці	-10.1492
▁Но	-10.1499
ide	-10.15
▁любить	-10.1505
▁Канал	-10.1512
лки	-10.1515
ou	-10.1515
▁Лютий	-10.1516
▁тверд	-10.1518
▁ТА	-10.1523
ґ	-10.1527
▁використовуйте	-10.1528
▁Христа	-10.1529
▁жаль	-10.1536
▁вірус	-10.1537
▁отримуєте	-10.1547
600	-10.1551
стра	-10.1555
▁секунд	-10.1558
бут	-10.1566
▁Робота	-10.1569
▁3/4	-10.1571
Є	-10.1574
вин	-10.1576
вен	-10.1576
▁служба	-10.1581
ron	-10.1582
▁фетиш	-10.1586
▁Міні	-10.1593
▁стали	-10.1594
▁‘	-10.1594
▁білявка	-10.1598
▁білих	-10.1598
▁поділитися	-10.1598
▁розчин	-10.1599
▁(4)	-10.1601
▁великою	-10.1611
▁відсутність	-10.1613
96	-10.1617
▁добавки	-10.1621
▁600	-10.1624
ock	-10.1624
▁Комп	-10.1627
бр	-10.1627
mail	-10.1627
▁гостям	-10.1628
▁звук	-10.163
▁підпис	-10.1632
▁клуб	-10.1633
▁назва	-10.1635
▁виробник	-10.164
уд	-10.1649
▁мовою	-10.165
▁браузера	-10.1653
ників	-10.1653
der	-10.1653
300	-10.1658
▁двигуна	-10.1659
ec	-10.1663
▁вперед	-10.1664
▁Сі	-10.1668
▁Керівництво	-10.1668
▁найбільших	-10.1675
▁стероїдів	-10.1682
ance	-10.1683
илися	-10.1687
▁Особливості	-10.1692
▁досвіду	-10.1692
▁Параметри	-10.1692
▁можливостей	-10.1693
▁обсяг	-10.1706
▁поза	-10.1707
▁Діти	-10.1711
sc	-10.1711
▁альбомів	-10.1712
▁Африка	-10.1716
▁Питання	-10.1716
▁виробників	-10.1718
cam	-10.1718
рост	-10.1721
▁Результати	-10.1725
▁документів	-10.1726
зв	-10.1733
▁температура	-10.1734
ss	-10.1735
іна	-10.1736
ювати	-10.1736
▁відмінно	-10.1738
▁Китаю	-10.174
▁Недосвідчена	-10.174
▁Outlook	-10.174
▁One	-10.1744
▁діапазон	-10.1749
▁42	-10.175
▁ходьби	-10.1752
▁ванна	-10.1753
▁мої	-10.1757
▁біо	-10.176
▁Березня	-10.1764
▁запобігти	-10.1764
▁світлодіодні	-10.1764
▁метрів	-10.1766
▁воно	-10.1768
▁шоколад	-10.177
▁подій	-10.1771
том	-10.1774
гон	-10.1776
▁сильно	-10.1776
ОЮ	-10.1787
біл	-10.1789
▁Пан	-10.1791
▁листя	-10.1792
▁Ваша	-10.1793
кр	-10.1796
їзд	-10.1798
гер	-10.1799
▁зовнішній	-10.1804
▁стандарт	-10.1809
яке	-10.181
by	-10.181
▁допоможуть	-10.1811
▁(28	-10.1816
▁Ch	-10.1821
▁мільйонів	-10.1822
▁однієї	-10.1823
▁споживання	-10.1824
▁однак	-10.1825
▁Парк	-10.1825
▁краса	-10.1825
▁кінця	-10.1825
ran	-10.1827
▁моніторингу	-10.1828
КУ	-10.183
▁Франції	-10.1836
▁насолодитися	-10.1848
▁введення	-10.1848
▁супутник	-10.185
▁роль	-10.185
▁показати	-10.1852
▁План	-10.1854
ютері	-10.1855
▁оснащені	-10.1857
:02	-10.1858
▁оформлення	-10.186
ест	-10.1862
▁якими	-10.1867
▁вкажіть	-10.1869
▁Велик	-10.187
▁риб	-10.1875
▁елементів	-10.1878
▁Або	-10.1879
▁Jul	-10.1881
▁повинно	-10.1884
▁чим	-10.189
88	-10.1891
▁портативний	-10.1892
▁Do	-10.1893
▁бренд	-10.1894
очки	-10.1895
▁зокрема	-10.1895
▁АВТОМОБІЛІВ	-10.1896
▁Камера	-10.1896
▁стане	-10.1897
▁створений	-10.1897
▁Детальніше	-10.1899
▁каналу	-10.1902
▁топ	-10.1903
▁генератор	-10.1904
вач	-10.1908
▁Стр	-10.1908
▁охолодження	-10.1908
▁наступний	-10.191
чок	-10.1911
▁(26	-10.1912
▁надавати	-10.1913
▁39	-10.1917
ог	-10.1919
▁маси	-10.1919
▁шукати	-10.192
▁Хостел	-10.192
▁серце	-10.1922
▁Java	-10.1924
▁El	-10.1927
▁info	-10.1927
лом	-10.193
▁центра	-10.1931
▁Блондинка	-10.1931
ев	-10.1932
▁штраф	-10.1932
▁Ta	-10.1934
▁хвороби	-10.1937
▁CD	-10.1938
▁кс	-10.1938
▁потрібен	-10.1944
▁ПРОКАТ	-10.1944
▁золото	-10.1945
▁Го	-10.1946
pi	-10.1949
ag	-10.1951
▁школа	-10.1956
▁плани	-10.196
тив	-10.1963
▁ПОМІЧНИК	-10.1969
▁скла	-10.1969
▁рекомендуємо	-10.197
▁відкритому	-10.197
▁виклик	-10.198
▁Жінки	-10.1981
▁зменшити	-10.1981
▁точка	-10.199
▁Mobile	-10.199
▁HGH	-10.1992
▁Ну	-10.1992
ета	-10.1992
▁09	-10.1993
▁студент	-10.1995
▁використовуєте	-10.2
▁відвідувачів	-10.2
▁Мені	-10.2001
▁транспорт	-10.2003
lin	-10.2007
▁спів	-10.2014
▁способом	-10.2017
:11	-10.2018
▁пішов	-10.2018
▁поліпшити	-10.2018
▁зберігати	-10.2024
▁номерах	-10.2025
▁листи	-10.2025
▁автором	-10.2031
▁дерева	-10.2031
хоп	-10.2033
▁порядку	-10.2034
▁центру	-10.2036
яний	-10.2037
▁Plus	-10.2041
▁My	-10.2041
▁Super	-10.2059
▁ту	-10.206
лювання	-10.206
hi	-10.2062
▁Сп	-10.2062
▁мистецтва	-10.2062
▁Вага	-10.2063
57	-10.2066
▁технічні	-10.2067
▁фестиваль	-10.2067
▁1.1	-10.2071
▁центральн	-10.2072
▁Пара	-10.2074
льні	-10.2075
пт	-10.2078
-12	-10.2079
▁Технічні	-10.2079
▁Погода	-10.2081
кра	-10.2084
▁Ши	-10.2089
▁al	-10.2089
▁Скільки	-10.2091
▁музику	-10.2091
:15	-10.2091
▁зниження	-10.2092
▁склян	-10.2096
den	-10.2096
▁водою	-10.2102
▁проблему	-10.2109
▁шар	-10.2111
За	-10.2111
▁мобільного	-10.2122
▁моди	-10.2123
▁сер	-10.2126
▁материнства	-10.2128
еж	-10.2131
▁наше	-10.214
▁діяльність	-10.2141
▁хороші	-10.2141
au	-10.2143
ски	-10.2144
5%	-10.2144
уль	-10.2145
ue	-10.2146
дат	-10.2152
▁острови	-10.2153
▁область	-10.2153
▁інформаційн	-10.2156
▁технологія	-10.2158
▁го	-10.216
▁культур	-10.2165
гра	-10.2165
▁поштою	-10.2166
▁65	-10.2167
ЛА	-10.2172
верт	-10.2176
▁допомога	-10.2178
▁Вітаємо	-10.2178
▁вважається	-10.2179
74	-10.218
▁08:00	-10.218
▁дистанційного	-10.2182
▁тобто	-10.2183
▁Ман	-10.2184
US	-10.219
▁знайшли	-10.219
▁користування	-10.2191
▁звернутися	-10.2193
▁лікаря	-10.2202
▁заздалегідь	-10.2203
▁отримали	-10.2203
▁ДЛЯ	-10.2205
дум	-10.2213
▁чат	-10.2215
рам	-10.2216
▁Індійська	-10.2216
▁корисні	-10.2216
▁ГГц	-10.2216
▁категорія	-10.2216
▁починається	-10.2217
▁Dr	-10.2219
▁Galaxy	-10.2228
▁декілька	-10.2228
▁Переглянути	-10.2229
уванні	-10.223
цев	-10.2231
▁Закон	-10.2234
▁незалежно	-10.2235
ред	-10.2237
▁Спасибі	-10.224
▁бази	-10.2243
▁зміст	-10.2244
ори	-10.2245
able	-10.2245
▁виставка	-10.2246
▁ID	-10.2248
▁(30	-10.2248
ВА	-10.2249
▁залишається	-10.2258
▁Sp	-10.2259
ину	-10.2259
dy	-10.2259
▁House	-10.2259
▁Незважаючи	-10.2265
▁плагін	-10.2267
▁Реєстрація	-10.2267
▁LG	-10.2268
анс	-10.227
▁захистити	-10.2276
▁ресурсів	-10.2276
▁Грудаста	-10.2278
▁вагітності	-10.2278
é	-10.2278
ім	-10.2283
85	-10.2288
▁свят	-10.2289
▁Factory	-10.2291
MA	-10.2292
▁Spa	-10.2294
иця	-10.2294
▁зрілі	-10.2297
▁тебе	-10.2298
▁наша	-10.2302
▁Villa	-10.2304
фт	-10.2305
иться	-10.2308
▁постачальників	-10.231
▁(21	-10.2314
▁деталей	-10.2316
▁функцію	-10.2316
AL	-10.2319
▁сервера	-10.2322
▁То	-10.2324
▁27500	-10.2325
▁Sa	-10.2329
▁раді	-10.2333
▁Синій	-10.2334
over	-10.2335
▁co	-10.2336
▁рахунку	-10.2336
▁суб	-10.2339
▁нове	-10.234
єте	-10.2343
▁наступного	-10.2343
▁Am	-10.2346
▁першим	-10.2349
лок	-10.2351
кле	-10.2353
▁Casino	-10.2354
▁додаткових	-10.2354
▁Єва	-10.2356
▁Київ	-10.236
▁посад	-10.236
пс	-10.2371
-8	-10.2372
▁компонентів	-10.2373
▁ремонт	-10.2378
▁Адреса	-10.2379
▁асортимент	-10.2379
▁належить	-10.2379
▁документи	-10.238
▁підтримувати	-10.2382
▁Ваші	-10.2382
▁Склад	-10.2382
ES	-10.2383
▁екрану	-10.2383
мар	-10.2387
▁подвійн	-10.2388
ниці	-10.2389
▁організм	-10.2391
▁почуття	-10.2392
являється	-10.2392
▁2006	-10.2395
▁метрах	-10.2396
ож	-10.2397
▁Ісус	-10.24
▁Надіслати	-10.2408
:12	-10.2409
ацією	-10.2409
▁Вік	-10.241
▁Blue	-10.2411
▁Ціни	-10.2413
▁10%	-10.2415
`	-10.2417
▁розвиток	-10.2417
▁виявлення	-10.2423
▁контролювати	-10.2427
▁конфігурації	-10.243
▁догляд	-10.2434
▁Ті	-10.2438
▁системою	-10.2441
▁відділ	-10.2442
▁закриття	-10.2443
▁швидкий	-10.2443
▁Пляж	-10.2443
▁пішки	-10.2446
▁Line	-10.2451
▁виконувати	-10.2452
▁To	-10.2454
▁популярні	-10.2458
ват	-10.2459
▁::	-10.2459
▁успіх	-10.2461
кус	-10.2464
▁Сен	-10.2467
line	-10.2468
46	-10.2476
▁початков	-10.2476
▁Положення	-10.2481
▁паперу	-10.2481
▁збереження	-10.2483
▁HTML	-10.2484
▁мішок	-10.2487
ass	-10.2489
▁формат	-10.2492
▁сертифікат	-10.2493
▁Саме	-10.2493
▁плав	-10.2493
▁впевнені	-10.2494
▁принаймні	-10.2494
▁відтворення	-10.25
top	-10.2503
▁Огляди	-10.2506
▁Гі	-10.2509
▁Лікар	-10.2513
lic	-10.2516
ено	-10.2518
▁са	-10.252
▁впливає	-10.2523
▁коробки	-10.2523
ear	-10.2529
▁детальн	-10.2535
▁безпечно	-10.2535
▁кри	-10.2537
▁Плюс	-10.2539
▁пе	-10.2541
ys	-10.2543
▁населення	-10.2547
▁соло	-10.2552
НИ	-10.2556
▁Na	-10.2558
▁починаючи	-10.2559
▁тижні	-10.2562
ована	-10.2563
ське	-10.2563
сел	-10.2564
Ма	-10.2564
▁вечір	-10.2565
ху	-10.2567
▁продажів	-10.2571
az	-10.2574
▁кожної	-10.2575
▁вперше	-10.2575
▁Вибір	-10.2577
▁дозування	-10.2581
камера	-10.2583
ment	-10.2595
▁Син	-10.2597
▁Травень	-10.2598
▁старі	-10.2601
ях	-10.2603
яна	-10.2603
▁зручно	-10.2604
ven	-10.2605
чення	-10.2609
▁Америки	-10.261
▁Шлях	-10.261
▁машині	-10.2612
▁системі	-10.2613
ick	-10.2615
оф	-10.2616
▁да	-10.262
▁найвищ	-10.2623
act	-10.2629
▁Париж	-10.2633
фін	-10.2636
▁шкіра	-10.2646
▁платформа	-10.2647
▁розуміння	-10.265
дин	-10.2652
▁корисно	-10.2654
▁градусів	-10.2654
тр	-10.2655
▁Перегляд	-10.2655
▁число	-10.2669
▁$1	-10.2673
▁Ор	-10.2674
▁Eutelsat	-10.2676
▁короткий	-10.2676
▁люблять	-10.2676
▁автомобілі	-10.2679
▁Inc	-10.2682
спі	-10.2684
▁дотримуватися	-10.2689
▁дихання	-10.2689
аб	-10.2689
▁своїй	-10.2691
НО	-10.2692
tic	-10.2693
▁Архів	-10.2694
рос	-10.2695
▁San	-10.2696
вши	-10.2698
дайте	-10.2699
▁ЗАБРОНЮВАТИ	-10.2702
▁квиток	-10.2702
▁операцій	-10.2706
▁Sony	-10.2707
▁курси	-10.2711
-20	-10.2712
она	-10.2712
▁Гор	-10.2714
▁коментарів	-10.2715
▁Мед	-10.2716
відповідальність	-10.2724
▁голос	-10.2724
▁телефонів	-10.2724
▁успішно	-10.2727
▁перетворення	-10.273
ver	-10.2741
▁змозі	-10.2741
цією	-10.2749
▁пляшки	-10.2754
▁інвестицій	-10.2754
ге	-10.2766
▁обох	-10.2768
▁OEM	-10.2769
▁ос	-10.277
▁Дж	-10.277
пуск	-10.2773
▁спа	-10.2774
▁дав	-10.278
▁пізніше	-10.2781
▁Європи	-10.2781
▁Da	-10.2784
TM	-10.2784
▁величезний	-10.2786
:14	-10.2787
▁Серед	-10.2789
▁додаткову	-10.2794
▁Отже	-10.2794
▁Люди	-10.2794
▁межах	-10.2797
▁слово	-10.28
▁тежина	-10.2808
▁Номер	-10.2809
ігри	-10.281
▁домен	-10.2814
▁щастя	-10.282
▁призводить	-10.2821
▁випробування	-10.2821
▁зроблено	-10.2822
цин	-10.2825
▁Star	-10.283
▁се	-10.2832
▁датчик	-10.2834
▁породи	-10.2837
трі	-10.2847
▁думки	-10.2847
стру	-10.2853
язів	-10.2854
▁Че	-10.2854
фр	-10.2856
▁WhatsApp	-10.2856
ход	-10.2859
▁японська	-10.286
бро	-10.2862
▁Лондон	-10.2864
fa	-10.2866
▁молоді	-10.2872
▁компанію	-10.2874
▁Open	-10.2875
▁рис	-10.2876
▁персональні	-10.2877
цем	-10.2884
▁потребує	-10.2887
▁PayPal	-10.2887
▁Пов	-10.2888
▁ідея	-10.2893
▁вікно	-10.2894
▁Здоров	-10.2895
▁університету	-10.29
▁випадків	-10.29
▁освіти	-10.2914
дання	-10.2915
-6	-10.2916
▁APK	-10.2917
ino	-10.2919
▁людям	-10.2927
▁клієнти	-10.2931
▁дощ	-10.2932
▁відкриття	-10.2941
підручник	-10.2942
шок	-10.2949
рах	-10.295
▁ймовірно	-10.295
▁be	-10.2951
▁розміри	-10.2951
▁користь	-10.2954
▁груп	-10.2955
▁якої	-10.2957
▁випуск	-10.2959
▁оператор	-10.2959
▁препарати	-10.296
▁Голона	-10.2968
▁Ге	-10.2972
▁ніяких	-10.2972
юр	-10.2974
▁насіння	-10.2975
▁другий	-10.2976
слов	-10.2976
▁користувач	-10.2977
▁New	-10.2981
▁район	-10.2981
▁шаблон	-10.2983
▁ніг	-10.2984
цю	-10.2984
▁All	-10.2986
▁Рожевий	-10.2986
являються	-10.2988
▁стала	-10.2988
дії	-10.2988
▁окуляри	-10.299
▁майстер	-10.2992
▁Чим	-10.2994
▁тижня	-10.2994
▁інгредієнти	-10.3002
":	-10.3007
▁Ювілей	-10.3008
ney	-10.3009
▁займає	-10.3009
▁оральний	-10.3011
▁вихід	-10.3012
▁записів	-10.3016
▁Австралія	-10.302
▁невеликий	-10.3022
▁обробка	-10.3022
76	-10.3022
▁виробнич	-10.3026
2018	-10.3027
▁тем	-10.3028
сил	-10.3031
▁першу	-10.3033
▁ВІДЕО	-10.3035
▁повне	-10.3036
▁помилка	-10.3036
▁спільн	-10.3037
▁Bar	-10.304
▁приносить	-10.3045
▁Twitter	-10.3049
▁прожектор	-10.3049
▁And	-10.305
so	-10.3051
метр	-10.3052
▁організмі	-10.3055
ятниця	-10.3057
▁Повний	-10.3058
:17	-10.3061
тні	-10.3068
▁Зараз	-10.3073
▁Кожн	-10.3074
▁SunPorno	-10.3076
слід	-10.3077
▁Білі	-10.308
нік	-10.3082
▁вмісту	-10.3085
ючі	-10.3085
▁1.0	-10.3086
▁екс	-10.3088
▁окремо	-10.309
Про	-10.3094
▁далеко	-10.3095
▁джерела	-10.3098
▁отримують	-10.3099
мат	-10.3101
ший	-10.3102
▁робите	-10.3103
iz	-10.3107
EN	-10.3108
іс	-10.3108
тики	-10.3113
▁ЗА	-10.3113
▁собак	-10.3116
▁Санкт	-10.3117
▁44	-10.3121
нс	-10.3123
біт	-10.3123
TS	-10.3123
▁ТОВ	-10.3128
▁Транспондер	-10.313
▁оновити	-10.313
▁операції	-10.3131
:59	-10.3131
▁збір	-10.3133
хан	-10.314
▁електронній	-10.3143
▁тату	-10.3145
▁помешкання	-10.3146
ET	-10.3147
▁05:00	-10.3148
mb	-10.3149
▁музика	-10.3157
HD	-10.3157
▁вікні	-10.316
▁on	-10.3162
▁клавіатури	-10.3164
port	-10.3164
▁інженер	-10.3167
аємо	-10.3169
▁закінчення	-10.3169
▁чоловіка	-10.3177
end	-10.3185
▁Примітка	-10.3185
▁пошті	-10.3186
:13	-10.3196
ОН	-10.3196
дра	-10.3196
▁Th	-10.3196
▁сторони	-10.3199
▁Вартість	-10.3199
USD	-10.3201
▁серія	-10.3202
жі	-10.3204
▁догляду	-10.3208
▁стрес	-10.321
▁Обладнання	-10.3213
▁Con	-10.3214
пар	-10.3215
▁прийому	-10.3218
тре	-10.3219
▁Се	-10.3219
▁відомо	-10.3224
▁російська	-10.3227
гін	-10.3228
▁49	-10.3229
:16	-10.3231
▁коробка	-10.3234
ючись	-10.3234
RA	-10.3239
▁5-	-10.324
87	-10.3248
дар	-10.3249
ite	-10.3257
▁гей	-10.3261
▁процедури	-10.3262
ИЙ	-10.3262
АТИ	-10.3263
кла	-10.3264
▁віці	-10.3265
сла	-10.3266
bb	-10.3267
▁місцях	-10.3268
▁Bluetooth	-10.3268
▁японський	-10.327
▁кулі	-10.3271
▁гравці	-10.3274
▁II	-10.3275
▁суміш	-10.3278
▁виконати	-10.3282
▁архів	-10.3282
▁даними	-10.3284
▁розклад	-10.3285
ед	-10.3285
▁високого	-10.3287
▁Ne	-10.3287
▁залишити	-10.329
▁робочих	-10.329
стій	-10.3296
▁позбутися	-10.3296
▁місяця	-10.3296
all	-10.3297
Не	-10.3297
▁імені	-10.3298
han	-10.3299
amp	-10.33
▁металу	-10.3301
РУ	-10.3304
▁нашій	-10.3307
61)	-10.3314
CO	-10.3316
они	-10.3318
▁World	-10.3323
▁відпочинок	-10.3324
▁музики	-10.3324
▁ПІО	-10.3324
▁нашими	-10.3324
▁верстат	-10.3326
аєте	-10.3332
AM	-10.3336
LE	-10.3337
▁дівчина	-10.3338
▁гормону	-10.3338
▁забронювати	-10.3338
po	-10.3339
дали	-10.3341
▁описано	-10.3345
для	-10.3347
▁назвою	-10.3352
▁сфері	-10.3352
▁Power	-10.3355
▁бан	-10.3355
кція	-10.3356
▁відображає	-10.3356
▁Уніформа	-10.3357
ИН	-10.3358
ТА	-10.3359
▁Англійська	-10.336
▁спілкування	-10.3366
▁знижки	-10.3366
▁воду	-10.3376
▁існують	-10.338
мон	-10.3382
▁Ri	-10.3382
ik	-10.3384
▁сигнал	-10.3387
▁постачальник	-10.3388
▁почав	-10.3389
▁Нижче	-10.3394
▁ситуації	-10.3394
▁сум	-10.3399
▁Євро	-10.34
▁Ka	-10.3411
▁банк	-10.3411
▁(5)	-10.3412
▁Контакти	-10.3413
▁Експрес	-10.3418
ош	-10.342
▁Чудова	-10.3422
▁забезпечують	-10.3426
que	-10.3428
RE	-10.3429
▁являє	-10.3432
▁струму	-10.3433
▁сні	-10.3435
▁Іспанії	-10.3436
▁відрізняється	-10.3437
▁поряд	-10.3437
▁наступних	-10.3438
▁одній	-10.3439
ON	-10.3439
▁Ti	-10.3448
▁ретельно	-10.3452
▁Коледж	-10.3459
увач	-10.3459
▁Доступ	-10.3464
▁Одужання	-10.3464
▁реального	-10.3467
▁Інструменти	-10.3468
▁прийняття	-10.3469
▁Рік	-10.3471
▁всій	-10.3478
▁регулярно	-10.3479
▁41	-10.3479
▁Тоді	-10.3481
▁Пла	-10.3483
РИ	-10.3485
▁ліжка	-10.3485
▁вираз	-10.3486
▁платити	-10.3488
▁корпус	-10.349
44)	-10.3491
▁Фітнес	-10.3493
рош	-10.3493
▁вогні	-10.3495
▁мого	-10.3496
logo	-10.3498
▁клієнтам	-10.3499
оген	-10.3499
▁високо	-10.3506
лити	-10.3506
▁важливі	-10.3506
▁Гуру	-10.351
▁записи	-10.3511
ач	-10.3515
ds	-10.3519
▁перевагу	-10.3519
▁їхні	-10.352
▁Ex	-10.3521
▁КУПІВЛ	-10.3521
▁Бонус	-10.3521
▁Гарантія	-10.3522
▁помилку	-10.3523
▁компонент	-10.3523
▁Gi	-10.3526
▁Park	-10.3536
▁обід	-10.3536
64)	-10.3541
way	-10.3547
лан	-10.3549
▁будівництво	-10.355
▁переконатися	-10.355
лює	-10.3551
▁пройти	-10.3551
ози	-10.3552
▁весел	-10.3552
▁мережа	-10.3553
29)	-10.3559
ins	-10.3562
▁покоління	-10.3564
▁Internet	-10.3565
▁торгов	-10.3567
fi	-10.3568
иль	-10.3569
74)	-10.3576
▁поїздки	-10.3577
▁SP	-10.3577
▁Школярка	-10.3578
▁історію	-10.3578
hotel	-10.3583
qui	-10.3584
▁піни	-10.3586
▁43	-10.3586
PS	-10.3586
▁Початок	-10.3593
▁компанією	-10.3593
si	-10.3596
йтеся	-10.3602
▁Довжина	-10.3607
пле	-10.3608
блок	-10.361
ov	-10.3611
лася	-10.3612
▁мали	-10.3614
бач	-10.3615
▁засобами	-10.3621
▁душем	-10.3625
cc	-10.3628
▁гр	-10.3631
▁Пар	-10.3632
79)	-10.3633
▁екстракт	-10.3636
амін	-10.3637
▁Штати	-10.3638
unt	-10.3638
▁Футбол	-10.3639
▁2.0	-10.3642
ятки	-10.3644
▁вирішення	-10.3645
▁Пе	-10.3647
Йорк	-10.3647
▁буду	-10.3648
▁Ша	-10.3648
▁заборон	-10.365
▁безумовно	-10.365
▁st	-10.3652
▁вітер	-10.3653
▁con	-10.3658
▁хочемо	-10.366
▁Пакет	-10.366
▁ресторані	-10.3661
45)	-10.3662
▁воді	-10.3664
▁відповідати	-10.3665
▁вивчення	-10.3665
▁салат	-10.3666
sion	-10.367
▁зона	-10.3672
▁веде	-10.3672
▁галереї	-10.3676
92)	-10.3678
▁препарату	-10.368
▁iOS	-10.368
пози	-10.3681
▁поштов	-10.3682
▁тему	-10.3684
▁розширен	-10.369
кот	-10.3691
ляр	-10.3695
▁конвертер	-10.3697
▁скло	-10.37
▁Video	-10.3705
▁знижку	-10.3708
▁графік	-10.3708
▁помилок	-10.3709
120	-10.371
Як	-10.3712
:23	-10.3715
ten	-10.372
▁Atlantik	-10.3723
▁людьми	-10.3723
▁нової	-10.3725
їв	-10.3725
порт	-10.3726
tt	-10.3728
▁розділу	-10.3729
png	-10.373
елі	-10.3732
47)	-10.3734
▁Поїзд	-10.3734
▁Давайте	-10.3737
▁механізм	-10.3737
▁курорт	-10.3738
▁ДЕНЬ	-10.3738
▁верхній	-10.3739
TA	-10.3741
▁›	-10.3743
:18	-10.3745
▁прозор	-10.3751
маг	-10.3752
▁відображення	-10.3752
▁Вишивка	-10.3753
▁Прес	-10.3755
▁електронною	-10.3756
▁сон	-10.3756
▁типів	-10.3757
▁пропозиція	-10.3759
альна	-10.3759
▁глибоко	-10.3766
▁Ca	-10.3766
єктив	-10.3767
ОМ	-10.3772
:10	-10.3773
▁електронні	-10.3774
▁Ja	-10.3774
▁Гей	-10.3775
▁Електронна	-10.3777
▁комфорт	-10.3777
▁економічн	-10.3777
▁станція	-10.3781
▁Відвідайте	-10.3781
▁століття	-10.3781
▁Модуль	-10.3781
ME	-10.3784
uck	-10.3784
▁Rong	-10.3784
19)	-10.3786
▁Рейтинг	-10.3788
he	-10.3789
▁Разом	-10.379
РО	-10.3791
▁Amazon	-10.3795
▁допомагають	-10.3796
▁2002	-10.3798
ЛЕ	-10.38
ny	-10.38
▁ПРО	-10.3801
▁створює	-10.3803
▁Ba	-10.3806
▁ставки	-10.3808
μ	-10.381
▁містах	-10.381
:45	-10.3812
ting	-10.3821
28)	-10.3822
▁оцінки	-10.3825
▁замовити	-10.3825
▁читати	-10.3825
▁їжу	-10.3825
шен	-10.3827
▁Qu	-10.3827
▁!!!	-10.3829
mar	-10.3829
:24	-10.3834
▁користувачам	-10.3834
:03	-10.3836
▁пан	-10.3837
▁Великобританія	-10.3839
ger	-10.384
▁елемент	-10.3844
OP	-10.3844
era	-10.3846
▁великим	-10.3846
▁запустити	-10.3848
▁Італії	-10.3854
▁Спробуйте	-10.3855
▁офіційн	-10.3856
▁останній	-10.3856
▁акумулятор	-10.3857
▁повну	-10.3862
▁Красуня	-10.3869
▁безпеку	-10.3869
▁ресурси	-10.387
▁азіатський	-10.387
АМ	-10.3875
ДЖ	-10.388
філ	-10.3881
ID	-10.3881
97)	-10.3883
оло	-10.3884
tu	-10.3887
ук	-10.3891
вав	-10.3897
▁цукру	-10.3898
▁певні	-10.3899
▁дають	-10.3899
ічні	-10.39
▁хостинг	-10.3902
▁зелений	-10.3902
▁Південна	-10.3905
єкта	-10.3906
12)	-10.3911
▁майданчик	-10.3912
53)	-10.3914
▁додому	-10.3914
TP	-10.3914
▁69	-10.3919
▁передавач	-10.392
eg	-10.3921
▁поворот	-10.3921
▁Fa	-10.3925
ил	-10.3926
▁факс	-10.3928
▁їжа	-10.3928
▁профілю	-10.3932
▁Отель	-10.3933
без	-10.3934
▁MB	-10.3934
▁електронних	-10.3938
▁Вінтаж	-10.394
▁посил	-10.3941
▁Дослідження	-10.3943
▁Вер	-10.3944
33)	-10.3956
ong	-10.3956
▁47	-10.3956
:06	-10.3958
▁прекрасний	-10.3958
▁підготовки	-10.3958
▁перейти	-10.3958
▁Кур	-10.3959
▁червоні	-10.3961
оти	-10.3962
▁валютою	-10.3963
▁аналізу	-10.3965
EC	-10.3968
чити	-10.3971
▁болю	-10.3972
▁конструкції	-10.3973
яким	-10.3974
рай	-10.3974
▁зупин	-10.3976
ост	-10.3976
▁поставлений	-10.3981
▁хвороб	-10.3985
▁модуль	-10.3985
▁туристичн	-10.3986
▁електричний	-10.3987
▁розгалужен	-10.3987
▁набряк	-10.3988
ул	-10.3988
▁стіни	-10.3988
▁Перекладач	-10.3988
▁носити	-10.3989
▁інтерес	-10.399
▁журнал	-10.3992
▁команду	-10.3992
▁Людина	-10.4001
▁коду	-10.4002
вед	-10.4002
▁відчуття	-10.4002
▁кафе	-10.4003
▁керувати	-10.4004
луч	-10.4007
fer	-10.4008
▁гу	-10.4012
▁супутника	-10.4012
:20	-10.4013
▁кнопки	-10.4017
рок	-10.4019
▁маршрут	-10.4021
▁Hot	-10.4022
▁прості	-10.4022
▁мо	-10.4022
ведення	-10.4022
бри	-10.4025
лений	-10.4026
▁походження	-10.4032
▁яйця	-10.4033
▁ціл	-10.4038
▁теле	-10.4043
▁So	-10.4046
▁мобільні	-10.4046
▁Застосування	-10.4047
▁Навчання	-10.4047
▁мозку	-10.4047
▁реклами	-10.4048
▁Бі	-10.4049
очка	-10.4049
▁товару	-10.4054
▁улюблен	-10.4054
Українська	-10.4056
▁процесі	-10.4059
▁Air	-10.4061
▁зуби	-10.4062
▁кольором	-10.4062
▁прибуток	-10.4062
▁Старі	-10.4066
▁(27	-10.4066
пущен	-10.4068
язаних	-10.407
25)	-10.4072
▁Маса	-10.4074
og	-10.4074
▁силу	-10.4076
▁загальний	-10.4077
▁дозволити	-10.4079
36)	-10.4079
▁рук	-10.4083
In	-10.4086
men	-10.4087
▁Кри	-10.4089
▁контролер	-10.4091
▁хлопець	-10.4092
▁Тест	-10.4093
:22	-10.4096
▁дизайном	-10.4097
▁електронну	-10.4098
pro	-10.4098
сту	-10.4098
mer	-10.4099
▁максимально	-10.41
69)	-10.4102
▁Вагітна	-10.4108
НИЙ	-10.4111
нів	-10.4117
▁Ho	-10.4117
24)	-10.4121
▁Дякуємо	-10.4123
▁Будинки	-10.4123
▁Шанхай	-10.4127
якими	-10.4127
РІ	-10.4132
єю	-10.4133
49)	-10.4134
ало	-10.4138
▁Flash	-10.4139
▁Ni	-10.414
▁страхування	-10.414
▁Ваше	-10.4141
рат	-10.4143
▁Ди	-10.4143
chi	-10.4145
▁(«	-10.4145
▁зустріч	-10.4146
ber	-10.4147
▁PC	-10.4147
▁літак	-10.4149
орт	-10.415
ходити	-10.415
инг	-10.4152
чно	-10.4154
▁саду	-10.4154
▁Лікування	-10.4154
▁Black	-10.4156
▁Останній	-10.4159
0%	-10.416
110	-10.4162
▁любові	-10.4164
▁автор	-10.4165
MC	-10.4165
▁мети	-10.4166
▁базов	-10.4167
▁Smart	-10.417
56)	-10.4171
62)	-10.4183
▁інструкції	-10.4183
▁Машина	-10.4184
▁видом	-10.4189
▁захоплююч	-10.4193
▁We	-10.4193
▁ЯК	-10.4194
▁Мак	-10.4194
вані	-10.4197
▁Можливість	-10.42
річний	-10.4208
▁заробити	-10.421
▁кошти	-10.4212
84)	-10.4212
ium	-10.4213
▁Вирішений	-10.4214
▁кольорів	-10.4216
ling	-10.422
▁Ту	-10.4222
ight	-10.4227
▁коралів	-10.4228
SE	-10.4232
▁51	-10.4233
▁оптимальн	-10.4234
▁формування	-10.4235
32)	-10.4236
▁слів	-10.4237
:01	-10.4237
май	-10.4239
ланд	-10.4241
▁швидкого	-10.4242
▁Загальні	-10.4242
-7	-10.4245
▁2007	-10.4246
▁наявність	-10.4246
▁ризику	-10.4247
▁Кра	-10.4249
34)	-10.4249
кол	-10.4251
▁моменту	-10.4253
ття	-10.4254
тік	-10.4257
▁миші	-10.4259
▁калькулятор	-10.426
▁відміну	-10.426
▁вільний	-10.4261
▁PP	-10.4261
▁підручники	-10.4262
▁відносини	-10.4263
юють	-10.4263
(10	-10.4266
дачі	-10.4267
ure	-10.4267
▁запуск	-10.4274
▁Іспанська	-10.4275
▁Канада	-10.4275
▁база	-10.4276
▁зубів	-10.4277
▁Под	-10.4281
ріл	-10.4282
▁вхід	-10.4284
▁Програмн	-10.4284
▁своєю	-10.4285
▁дивовижн	-10.4288
▁цілком	-10.4292
▁їй	-10.4294
▁високі	-10.4295
▁голови	-10.4297
▁хлопчик	-10.4299
▁рамках	-10.4307
▁відмов	-10.4308
ST	-10.4311
ki	-10.4311
▁API	-10.4316
фон	-10.4317
:08	-10.4319
єв	-10.432
▁розмірів	-10.432
▁Хардкор	-10.4321
кін	-10.4322
▁Хі	-10.4331
▁документ	-10.4331
▁листів	-10.4332
air	-10.4335
▁політики	-10.4335
40)	-10.4335
гл	-10.4335
▁телевізійн	-10.4337
52)	-10.4337
▁ста	-10.4338
дає	-10.4344
ada	-10.4345
-01	-10.4345
унд	-10.4346
енс	-10.4346
AS	-10.4349
54)	-10.4351
▁пропозицію	-10.4352
▁танк	-10.4352
▁розроблений	-10.4354
rt	-10.4354
ятайте	-10.4355
чер	-10.4356
енні	-10.4357
▁Nov	-10.4358
▁марки	-10.4358
зе	-10.4359
▁HTTP	-10.4361
▁агентство	-10.4364
▁зони	-10.4365
AC	-10.4366
▁ТЕХНІЧН	-10.4367
чат	-10.4374
:27	-10.4375
91)	-10.4376
нє	-10.4377
▁гриб	-10.4379
▁виходить	-10.4379
▁пом	-10.4382
▁JavaScript	-10.4383
▁готовий	-10.4384
ОК	-10.4388
ah	-10.439
кл	-10.4391
▁Швидкі	-10.4397
▁легкий	-10.4399
▁вдома	-10.4399
▁леді	-10.4399
▁англійська	-10.4402
іше	-10.4405
АЙ	-10.4407
▁Ки	-10.4409
bit	-10.441
еш	-10.4411
ata	-10.4413
▁стороні	-10.4414
▁особлив	-10.4415
▁OOO	-10.4415
▁Мила	-10.442
:28	-10.4421
SS	-10.4422
41)	-10.4428
▁Класичний	-10.443
нська	-10.443
▁символ	-10.4431
pt	-10.4439
▁знайдено	-10.4439
▁світлодіодн	-10.4441
▁дик	-10.4441
▁угоди	-10.4442
▁Гер	-10.4443
▁негайно	-10.4447
▁кран	-10.4448
▁Ло	-10.4449
▁копію	-10.4451
▁етап	-10.4453
▁моделей	-10.4461
▁Сполучені	-10.4462
ско	-10.4463
:21	-10.4465
rs	-10.4467
▁Пер	-10.4468
кан	-10.447
▁спокій	-10.4476
▁●	-10.4478
олі	-10.4478
▁такими	-10.448
▁пакети	-10.4485
▁дисплей	-10.449
▁Посилання	-10.4492
▁ХАРАКТЕРИСТИКИ	-10.4492
77	-10.4492
▁ідеальний	-10.4492
63)	-10.4492
35)	-10.4493
box	-10.4493
леж	-10.4494
▁локальн	-10.4494
▁you	-10.4499
фор	-10.4506
▁виграти	-10.4507
▁Статті	-10.4508
▁адресою	-10.4508
▁BTC	-10.4509
800	-10.4512
▁Si	-10.4513
60)	-10.4513
▁спр	-10.4515
▁губ	-10.4516
37)	-10.4516
▁Cl	-10.4517
48)	-10.452
▁жовтий	-10.452
▁погано	-10.4523
▁якомога	-10.4524
▁України	-10.4524
▁ефективним	-10.4524
▁ALL	-10.4524
ТЕ	-10.4528
▁пари	-10.4529
ire	-10.4533
АТ	-10.4535
▁вантаж	-10.4538
▁популярних	-10.4541
ell	-10.4542
інь	-10.4543
tro	-10.4547
old	-10.455
▁Слоти	-10.4551
▁Помічник	-10.4555
▁інститут	-10.4555
:05	-10.4557
▁Sky	-10.4558
▁брати	-10.4562
▁Фа	-10.4563
▁поділ	-10.4563
ari	-10.4564
▁Можливо	-10.4564
▁продукція	-10.4571
▁побудувати	-10.4571
▁реальні	-10.4573
▁Американський	-10.4574
▁найкращих	-10.4575
95)	-10.4575
▁виробництві	-10.458
бити	-10.458
▁Німецька	-10.4583
язаний	-10.4585
▁купувати	-10.4588
▁чекати	-10.4588
Привіт	-10.4593
▁флориста	-10.4594
av	-10.4599
єра	-10.46
пал	-10.4601
▁Волосся	-10.4602
TC	-10.4602
▁Рослини	-10.4603
фу	-10.4604
66)	-10.4604
▁бажання	-10.4607
▁мав	-10.4607
бін	-10.4613
▁Сам	-10.4615
▁побачите	-10.4618
▁Золотий	-10.4619
▁Кер	-10.4623
▁Sha	-10.463
лося	-10.463
57)	-10.463
ліс	-10.4631
18)	-10.4632
▁майбутньому	-10.4634
▁is	-10.4634
▁милий	-10.4635
▁Ac	-10.4638
ая	-10.4642
▁монітор	-10.4642
BR	-10.4644
сні	-10.4648
▁початок	-10.465
▁вдалося	-10.4651
▁MP	-10.4651
▁Ванна	-10.4657
зірковий	-10.4658
ивши	-10.4659
br	-10.4659
▁повернути	-10.466
▁новим	-10.4663
▁вина	-10.4665
▁Street	-10.4665
▁Таїланд	-10.4666
▁кристал	-10.4669
43)	-10.4671
46)	-10.4675
▁друк	-10.4681
▁прикраси	-10.4682
▁додаткове	-10.4682
▁порту	-10.4684
▁English	-10.4685
СТ	-10.4692
▁AM	-10.4694
відповідальності	-10.4698
65)	-10.4702
▁введіть	-10.4703
▁Фар	-10.4704
пит	-10.4706
ватися	-10.4706
передавач	-10.4707
▁побічних	-10.4707
зем	-10.471
▁Лист	-10.4712
▁Ведмідь	-10.4714
▁лиття	-10.4715
2019	-10.4716
86)	-10.4719
▁Проект	-10.4723
▁★	-10.4725
▁кроки	-10.4725
67)	-10.4725
des	-10.4729
▁Кімната	-10.473
▁стосовно	-10.473
▁інформацією	-10.473
▁Порт	-10.4734
SP	-10.4734
▁упаковка	-10.4736
ris	-10.4742
▁нав	-10.4743
▁Японія	-10.4745
▁Кошик	-10.4747
▁перебування	-10.4748
▁ВІД	-10.4748
▁▷	-10.4749
▁будівель	-10.4749
ано	-10.4752
▁факт	-10.4754
▁стані	-10.4755
▁(100	-10.4758
250	-10.4759
▁візит	-10.4759
лінг	-10.4761
▁чарівн	-10.4761
▁техніка	-10.4762
▁пісень	-10.4763
▁флористів	-10.4763
ft	-10.4766
▁тема	-10.4767
▁межами	-10.4767
low	-10.4768
льот	-10.4771
▁періоду	-10.4771
73)	-10.4772
▁представляє	-10.4774
▁співробітників	-10.4774
актив	-10.4775
▁Оренда	-10.4779
bu	-10.478
▁переваг	-10.4781
50)	-10.4782
▁46	-10.4785
▁визначен	-10.4787
перед	-10.4787
▁робіт	-10.479
НЕ	-10.4792
▁дівчата	-10.4792
39)	-10.4794
▁руб	-10.4794
▁взагалі	-10.4795
▁лимон	-10.4795
▁іншу	-10.4798
▁відчувати	-10.4798
ятати	-10.4799
▁ген	-10.48
▁Man	-10.4804
88)	-10.4805
the	-10.4805
ive	-10.4805
▁Бе	-10.4807
▁арбітражу	-10.4809
▁проходить	-10.481
-15	-10.481
5.00	-10.4811
▁Іграшки	-10.4811
▁важливим	-10.4811
▁придбання	-10.4812
94)	-10.4813
▁Команда	-10.4813
▁годину	-10.4813
(14	-10.4813
▁завершення	-10.4813
▁моєму	-10.4814
ons	-10.4815
▁зазначеним	-10.4817
▁For	-10.4817
14)	-10.4825
▁технічних	-10.4827
▁банківськ	-10.4828
▁вважають	-10.4829
▁ефір	-10.4829
▁компакт	-10.4834
:04	-10.4836
▁диван	-10.4837
провод	-10.4839
▁Empflix	-10.4843
▁Ubuntu	-10.4843
▁Oct	-10.4845
▁роду	-10.4846
Ь	-10.4846
▁8.	-10.485
зол	-10.485
▁(32	-10.4851
ігр	-10.4852
ага	-10.4852
▁спо	-10.4853
:25	-10.4856
▁Рубрики	-10.486
▁вагітних	-10.486
▁зроблені	-10.486
-30	-10.4862
▁найкращим	-10.4863
IA	-10.4866
▁пік	-10.4867
hu	-10.4868
ОР	-10.4869
▁Бога	-10.4873
▁проектів	-10.4876
▁Лялька	-10.4876
▁таблиці	-10.4876
даючи	-10.488
▁неможливо	-10.4881
8%	-10.4883
SA	-10.4883
▁завантажен	-10.4886
увала	-10.4887
▁дух	-10.4888
51)	-10.4888
▁Pa	-10.4889
▁Упаковка	-10.4892
▁завантажувати	-10.4892
▁колеса	-10.4892
▁нарешті	-10.4893
▁підтвердження	-10.4894
77)	-10.4899
▁Ga	-10.49
правильного	-10.4902
▁заклад	-10.4906
▁Розробка	-10.4909
▁вулиці	-10.4909
анні	-10.4913
▁SMS	-10.4914
▁Випуск	-10.4914
▁Річна	-10.492
▁ST	-10.4923
mon	-10.4923
лас	-10.4925
▁Популярність	-10.4929
тування	-10.4931
:58	-10.4932
▁йдуть	-10.4933
76)	-10.4934
▁листа	-10.4934
▁Залишити	-10.4934
▁молод	-10.4939
▁сприяє	-10.4941
▁Іноді	-10.4941
▁подарунок	-10.4941
▁5/6	-10.4942
ez	-10.4942
▁простіше	-10.4943
ence	-10.4943
▁обрати	-10.4944
71)	-10.4953
▁шкіру	-10.4955
▁поблизу	-10.4958
▁зламати	-10.4958
▁ймовірність	-10.4958
▁коштує	-10.4958
:29	-10.4959
▁Phone	-10.4961
▁Ад	-10.4963
рус	-10.4965
▁особист	-10.4968
▁Лу	-10.4969
▁Мілан	-10.497
▁Французька	-10.4974
▁великої	-10.4975
ота	-10.4975
▁180	-10.4977
83)	-10.498
▁міжнародних	-10.4981
▁площі	-10.4991
du	-10.4991
▁війни	-10.4991
▁культури	-10.4992
▁рейтинг	-10.4994
▁Додаткові	-10.4994
▁Індія	-10.4996
72)	-10.4996
▁перших	-10.4999
подібн	-10.5001
▁особисті	-10.5002
ob	-10.5002
▁збираємо	-10.5003
:57	-10.5005
▁Логін	-10.5008
▁цілях	-10.5008
▁млрд	-10.5008
▁сну	-10.501
▁цільов	-10.5011
▁Inn	-10.5014
▁1,5	-10.5014
▁європейськ	-10.5015
▁дому	-10.5015
▁кімнат	-10.502
:26	-10.5024
▁ролик	-10.5024
овано	-10.503
▁Мати	-10.503
▁Фі	-10.5032
▁ман	-10.5036
▁Увійти	-10.504
▁комерції	-10.504
▁велике	-10.504
▁Транс	-10.5042
сен	-10.5044
set	-10.5048
82)	-10.505
87)	-10.5051
▁темно	-10.5051
част	-10.5053
▁Tool	-10.5055
[	-10.5056
▁висловити	-10.5057
▁високим	-10.5058
▁Мистецтво	-10.5058
15)	-10.5059
▁виправити	-10.5061
▁Тег	-10.5062
ess	-10.5064
▁(36	-10.5064
сад	-10.5064
▁зал	-10.5067
класти	-10.5067
▁заряд	-10.5068
26)	-10.5068
э	-10.5073
▁Переваги	-10.5073
стар	-10.5074
▁параметрів	-10.5078
▁Вхід	-10.5079
▁справу	-10.5086
▁слоти	-10.5087
▁Виробництво	-10.509
▁КВІТИ	-10.509
▁Підключення	-10.5091
коп	-10.5091
▁Сервер	-10.5092
if	-10.5092
▁панчохи	-10.5094
:09	-10.5102
11)	-10.5103
▁le	-10.5107
▁сторін	-10.5112
:19	-10.5113
▁Бер	-10.5115
▁огляду	-10.5116
58)	-10.5121
ella	-10.5122
38)	-10.5122
OR	-10.5123
▁завдань	-10.5123
▁ромашки	-10.5123
▁випадки	-10.5124
▁XXX	-10.5125
▁очікування	-10.5126
21)	-10.5129
говор	-10.5129
арі	-10.5129
дій	-10.5136
звичай	-10.5138
адрес	-10.5141
▁замовлень	-10.5141
▁грунт	-10.5141
▁ремонту	-10.5143
▁пікселів	-10.5145
7">	-10.5145
КО	-10.5145
ата	-10.5146
▁знаємо	-10.5148
ЛЯ	-10.515
27)	-10.5152
▁Or	-10.5154
▁Гравці	-10.5157
▁Multi	-10.5157
▁Пластикові	-10.5158
▁паст	-10.5158
ОВ	-10.5158
▁Моя	-10.516
▁Рим	-10.5161
ниць	-10.5163
сів	-10.5164
▁починає	-10.5166
ple	-10.5167
▁словами	-10.5168
:07	-10.5169
10)	-10.517
▁іншої	-10.5174
▁Молодий	-10.5174
▁красиві	-10.5175
▁виключно	-10.5175
▁залишатися	-10.5176
▁посиланням	-10.5177
▁220	-10.5178
▁цифров	-10.5178
1.1	-10.5183
▁от	-10.5184
▁феном	-10.519
CA	-10.5192
▁спробуйте	-10.5192
oc	-10.5193
▁Ві	-10.5196
▁впливу	-10.5198
▁кан	-10.5201
вели	-10.5201
МА	-10.5204
єктом	-10.5206
▁техніки	-10.5207
▁довгі	-10.5207
▁пошту	-10.5208
▁Дивіться	-10.5208
▁l	-10.521
81)	-10.5217
▁чоловіки	-10.522
▁продукцію	-10.5224
▁оператора	-10.5225
▁пил	-10.5227
23)	-10.5228
нський	-10.523
porn	-10.5231
▁Пу	-10.5231
▁Ko	-10.5231
▁приміщення	-10.5232
продаж	-10.5234
150	-10.5234
ura	-10.5236
▁брендів	-10.5238
Pro	-10.5239
▁Top	-10.5241
▁будівлі	-10.5241
75)	-10.5241
▁продовжувати	-10.5241
▁гравець	-10.5242
▁En	-10.5243
▁Ск	-10.5245
чений	-10.5247
▁Мор	-10.5249
▁запиту	-10.5255
▁дітям	-10.5258
▁механічн	-10.5258
▁Флорист	-10.5258
мор	-10.5265
перше	-10.5267
:31	-10.5268
cre	-10.5272
▁NCUK	-10.5275
▁вбудован	-10.5275
▁Enigma	-10.5276
▁молоко	-10.5276
▁дерево	-10.5278
нці	-10.5278
▁Відкрийте	-10.528
▁робочого	-10.5283
дати	-10.5283
ker	-10.5284
лка	-10.5291
крі	-10.5294
▁протокол	-10.5294
твори	-10.5298
▁Країна	-10.5299
дів	-10.5301
▁проводити	-10.5301
68)	-10.5303
80)	-10.5304
▁небо	-10.5305
:33	-10.5306
▁різноманітні	-10.5306
▁акцент	-10.5309
▁вологість	-10.5309
▁ЧПУ	-10.5309
▁Індії	-10.5312
ele	-10.5316
▁підприємств	-10.5317
▁сексуальн	-10.5317
▁знають	-10.532
17)	-10.5321
▁номера	-10.5322
Мар	-10.5323
єкт	-10.5324
▁Фотографії	-10.5326
▁дрилі	-10.5326
▁повного	-10.5327
▁Рок	-10.5333
▁53	-10.5335
42)	-10.5338
овими	-10.5343
▁бабуся	-10.5344
▁папір	-10.5345
▁залежно	-10.5345
▁пошкодження	-10.5346
лені	-10.5346
▁туалет	-10.535
льний	-10.5351
▁кінцев	-10.5356
▁диска	-10.5357
▁OpenELEC	-10.5359
▁палива	-10.5361
▁(6)	-10.5363
ІЯ	-10.5363
▁баланс	-10.5365
%)	-10.5368
▁разу	-10.5371
мас	-10.5372
▁Анти	-10.5372
▁52	-10.5373
▁пацієнтів	-10.5376
▁прогноз	-10.5377
96)	-10.5377
▁ефективності	-10.538
▁відкритим	-10.5382
▁Ам	-10.5383
коли	-10.5386
▁створен	-10.5389
▁оновлено	-10.5389
▁середовище	-10.5389
▁ніхто	-10.5395
▁показ	-10.5397
▁перші	-10.5397
▁причиною	-10.5398
▁фрукти	-10.54
PA	-10.5402
▁транс	-10.5405
▁ANKO	-10.5412
▁Продаж	-10.5412
▁ефірі	-10.5413
:55	-10.5416
fe	-10.5417
▁продовжує	-10.5419
▁клітини	-10.5423
▁вимір	-10.5429
▁добро	-10.5431
▁рецепти	-10.5434
1.0	-10.5436
▁Ісуса	-10.5436
▁отримані	-10.544
▁місцем	-10.5441
93)	-10.5442
▁смаком	-10.5442
▁відповідають	-10.5446
▁видимість	-10.5447
13)	-10.5449
▁Блог	-10.5451
▁квітами	-10.5451
(13	-10.5455
▁резервн	-10.5456
▁методів	-10.546
1%	-10.5461
▁обидва	-10.5463
▁електронна	-10.5465
▁відомості	-10.5465
:49	-10.5467
ологія	-10.5473
▁зупинити	-10.5477
pl	-10.5478
22)	-10.548
▁великого	-10.5482
▁установка	-10.5483
▁Ал	-10.5487
▁юридичн	-10.5489
▁Швейцарія	-10.549
▁an	-10.5492
▁справи	-10.5492
план	-10.5494
▁технологічн	-10.5495
▁Бікіні	-10.5498
▁безкоштовна	-10.5498
▁останню	-10.5498
▁властивостей	-10.5498
▁плати	-10.5499
▁мінімальн	-10.5499
▁моя	-10.5501
низ	-10.5502
РЕ	-10.5505
▁Високий	-10.5505
▁персонал	-10.5507
▁віртуальн	-10.5509
тичні	-10.551
сії	-10.5512
▁подарунков	-10.5515
▁Ferries	-10.5515
▁ТОЙ	-10.5516
бит	-10.5517
pp	-10.5519
▁пластикові	-10.5522
▁знайшов	-10.5523
▁ex	-10.5524
▁лідер	-10.5527
▁Мобільні	-10.5529
хмарний	-10.5533
▁Насолоджуйтесь	-10.5533
▁кількох	-10.5533
▁Депозит	-10.5533
▁відвідайте	-10.5533
▁схеми	-10.5534
▁команд	-10.5534
▁IPTV	-10.5535
▁плату	-10.5535
RO	-10.5536
ish	-10.5538
CH	-10.5538
▁Зазвичай	-10.5538
▁вікон	-10.5542
▁пакету	-10.5546
валь	-10.5547
▁ad	-10.5547
▁Aug	-10.5548
Re	-10.555
▁Допомога	-10.555
▁навколишнього	-10.555
▁рекомендації	-10.555
▁спеціальний	-10.555
▁знань	-10.5551
▁ДОСТАВКИ	-10.5551
▁Пра	-10.5551
▁кам	-10.5559
▁Гал	-10.5559
▁блиск	-10.556
gi	-10.5562
люд	-10.5564
▁рідини	-10.5566
▁куль	-10.5567
▁Республіка	-10.5568
▁емоцій	-10.5568
кет	-10.5568
чик	-10.5569
кт	-10.557
▁вартості	-10.5572
топ	-10.5573
▁числа	-10.5573
▁складу	-10.5573
▁Св	-10.5574
▁недо	-10.5577
нити	-10.5578
▁параметр	-10.5578
▁Ел	-10.5578
31)	-10.5578
▁терапії	-10.5589
кав	-10.559
мп	-10.5594
илася	-10.5594
▁Процес	-10.5596
чати	-10.5597
▁Будинок	-10.5598
ік	-10.5598
▁дюймів	-10.56
давати	-10.5601
▁Box	-10.5601
▁складно	-10.5602
▁костюм	-10.5603
▁підходять	-10.5607
▁ЖЕ	-10.5607
▁123	-10.5609
ED	-10.5613
язання	-10.5613
ДИ	-10.5614
▁запас	-10.5619
▁блоку	-10.5633
▁посібник	-10.5634
вести	-10.5639
▁Легко	-10.5639
▁акваріума	-10.564
▁мод	-10.564
▁серйозн	-10.5641
хім	-10.5646
біг	-10.5646
▁56	-10.5646
▁Game	-10.5649
ізації	-10.5651
▁Рад	-10.5652
▁конструктор	-10.5653
зія	-10.5653
78)	-10.5653
андр	-10.5654
▁робимо	-10.5655
Ми	-10.5657
▁кислоти	-10.5658
▁54	-10.5658
▁вагу	-10.5659
30)	-10.5659
рог	-10.566
▁Клас	-10.5664
якій	-10.5667
:51	-10.5669
▁зміна	-10.5671
▁72	-10.5672
▁вимагають	-10.5673
ез	-10.5673
овувати	-10.5675
▁додавання	-10.5676
▁майбутні	-10.5676
:39	-10.5677
ометр	-10.5678
700	-10.568
уєте	-10.568
▁риби	-10.5681
еля	-10.5682
▁58	-10.5682
▁Кам	-10.5682
ll	-10.5683
▁бере	-10.569
principal	-10.5691
▁Латинки	-10.5691
▁тр	-10.5691
99)	-10.5692
▁надають	-10.5693
ud	-10.5694
-19	-10.5695
55)	-10.5697
▁59	-10.5697
▁самого	-10.5697
▁конкретн	-10.5697
▁приємно	-10.5697
▁Сир	-10.5698
▁цілі	-10.5703
▁переглядати	-10.5707
▁ПРОПОНУЮ	-10.5708
▁нескінченн	-10.5708
▁проб	-10.5709
70)	-10.571
20)	-10.5711
▁акції	-10.5713
▁ДОСТАВК	-10.572
▁кріплення	-10.5724
дор	-10.5725
▁співпраці	-10.5726
▁надійний	-10.5726
▁жовт	-10.5729
▁Гол	-10.5731
:46	-10.5732
▁Light	-10.5733
альних	-10.5734
▁вечірка	-10.5734
-11	-10.5738
▁корпоративн	-10.574
ort	-10.5742
▁ФЛОРИСТ	-10.5743
▁WeTeK	-10.5744
▁батьків	-10.5746
ею	-10.5746
▁сторонні	-10.5748
▁попередньо	-10.5748
▁стало	-10.575
2017	-10.5752
2%	-10.5754
lan	-10.576
▁настройки	-10.5762
▁призвести	-10.5762
▁прочитати	-10.5766
98)	-10.577
IT	-10.5771
tur	-10.5773
▁туалетно	-10.5773
▁0,5	-10.5774
▁унікальн	-10.5774
cal	-10.5778
▁опрацювання	-10.5779
▁початківців	-10.5779
▁середній	-10.5786
жи	-10.5788
vs	-10.579
▁собаки	-10.5794
▁виробника	-10.5797
:36	-10.5797
▁Безпека	-10.5797
▁боротьби	-10.5797
/2015/02/	-10.5797
▁Основна	-10.5802
нев	-10.5802
▁контент	-10.5805
цін	-10.5805
▁1.5	-10.5811
▁інтенсивн	-10.5813
ale	-10.5813
КС	-10.5815
BIZ	-10.5815
▁цукерок	-10.5815
▁природі	-10.5815
▁чорнила	-10.5816
▁простим	-10.5817
cl	-10.582
▁розглянути	-10.5824
EL	-10.5827
▁застосовувати	-10.5828
▁гол	-10.5828
:32	-10.5829
▁PR	-10.5829
анд	-10.5829
▁грає	-10.5832
▁пляжі	-10.5833
▁Кілька	-10.5833
▁гарантія	-10.5834
чні	-10.5835
рад	-10.5836
▁тривал	-10.5837
плат	-10.5842
▁фон	-10.5843
▁самим	-10.5843
▁робот	-10.5849
▁Pre	-10.5849
▁скоро	-10.5851
діл	-10.5854
▁Сім	-10.5855
▁Пал	-10.5859
▁батька	-10.5859
▁сервери	-10.586
▁ванні	-10.586
1000	-10.5861
табілізовані	-10.5862
▁змінювати	-10.5865
▁екраном	-10.5866
▁Зверніть	-10.5867
▁увійти	-10.5869
▁говорять	-10.5869
▁стилю	-10.5869
емо	-10.587
▁зріла	-10.587
тримуйте	-10.587
▁2005	-10.5872
нес	-10.5872
▁св	-10.5872
fr	-10.5874
▁ранку	-10.5875
▁повернутися	-10.5876
▁гарантує	-10.5878
тура	-10.588
▁цікаві	-10.5886
▁потенціал	-10.5887
▁призначені	-10.5894
нку	-10.5901
▁Музей	-10.5905
▁сканування	-10.5905
ерн	-10.5907
▁риф	-10.5907
▁лікувати	-10.5908
▁партнерів	-10.5908
ham	-10.5909
ило	-10.5911
16)	-10.5911
IC	-10.5914
Це	-10.5915
чо	-10.5922
▁безкоштовну	-10.5923
▁Освіта	-10.5923
▁зразок	-10.5923
▁ванною	-10.5923
▁жовтень	-10.5924
голов	-10.5927
▁MS	-10.5932
▁бонуси	-10.5932
▁Солодка	-10.5936
маль	-10.5937
▁стріл	-10.5937
▁DC	-10.5939
▁митн	-10.5941
▁Азійки	-10.5941
▁мотоцикл	-10.5941
▁Україні	-10.5941
▁рідко	-10.5942
▁випробувань	-10.5942
▁HDporn	-10.5944
мб	-10.5945
▁вод	-10.5945
▁виглядають	-10.5945
3%	-10.5946
▁закону	-10.5946
▁дріб	-10.5946
▁держав	-10.5947
▁Азія	-10.595
▁фінансов	-10.5952
кати	-10.5953
BA	-10.5953
ОГО	-10.5954
BS	-10.5954
ать	-10.5956
ЦІ	-10.5956
▁англійською	-10.5957
:37	-10.5958
▁пів	-10.5958
▁Одяг	-10.5959
▁ексклюзивн	-10.5959
що	-10.596
▁маленьк	-10.596
▁Швидкість	-10.5961
▁(31	-10.5964
▁сил	-10.5966
ора	-10.5971
59)	-10.5975
90)	-10.5977
▁правильний	-10.5978
▁шифрування	-10.5978
▁відмінний	-10.5978
▁шанс	-10.5978
▁Місце	-10.598
00)	-10.5981
▁агент	-10.5982
▁8.1	-10.5983
»)	-10.5984
▁do	-10.5984
▁Полі	-10.5991
▁Chrome	-10.5996
▁перемикач	-10.5996
▁індекс	-10.5996
▁кажучи	-10.5996
▁виявити	-10.5998
:54	-10.5998
▁Термін	-10.6001
віль	-10.6002
▁Gu	-10.6008
▁програмі	-10.6008
▁масштаб	-10.6008
охо	-10.601
▁Un	-10.6011
:53	-10.6012
▁Categories	-10.6014
-9	-10.6014
тори	-10.6014
▁експлуатації	-10.6015
чар	-10.6015
▁надмірн	-10.6015
▁сільськ	-10.6016
▁проекти	-10.6016
▁якістю	-10.6017
▁мережах	-10.6021
my	-10.6022
▁уві	-10.6027
▁подвійний	-10.603
▁думку	-10.6033
▁викликан	-10.6033
▁FX	-10.6034
▁циклу	-10.6035
▁ПРИ	-10.6037
▁Кол	-10.6048
бал	-10.6048
▁унікальний	-10.6051
▁Устаткування	-10.6051
▁Хлопець	-10.6051
▁Церква	-10.6051
▁вплинути	-10.6051
▁сила	-10.6052
▁зап	-10.6054
▁±	-10.6054
▁телебаченням	-10.6062
пін	-10.6064
▁Cristi	-10.6064
ському	-10.6064
▁надаються	-10.6067
віч	-10.6067
▁King	-10.6068
▁раку	-10.6069
▁Інструкція	-10.6069
▁Олександр	-10.6069
▁оновлений	-10.6069
▁виставков	-10.6071
лот	-10.6072
▁океан	-10.6078
:35	-10.6079
▁страх	-10.608
▁Gr	-10.6082
іка	-10.6083
▁довгий	-10.6087
▁30000	-10.609
:42	-10.609
IM	-10.609
▁поєднання	-10.6093
▁доступних	-10.6095
:56	-10.6095
Кана	-10.6096
▁слот	-10.6099
▁головний	-10.61
▁дохід	-10.61
▁аматор	-10.6105
▁вер	-10.6105
▁клі	-10.6106
▁гори	-10.6107
▁pro	-10.6108
:48	-10.611
єктів	-10.6111
Мо	-10.6112
▁11.	-10.612
nm	-10.6121
▁володіння	-10.6124
▁запобігання	-10.6125
▁метро	-10.6125
цт	-10.6125
▁4.0	-10.6125
▁Електро	-10.6125
▁папки	-10.6129
▁Du	-10.6134
val	-10.6134
▁Май	-10.6134
▁Такі	-10.6136
▁гарні	-10.6137
▁природні	-10.6138
▁типом	-10.6142
▁Дивовижна	-10.6143
▁стратегії	-10.6143
▁острів	-10.6143
▁May	-10.6143
▁наслідки	-10.6143
▁професійних	-10.6143
▁політика	-10.6144
▁гнучк	-10.6146
рол	-10.615
▁зуб	-10.6157
▁слабк	-10.6159
▁Бабуся	-10.6161
▁Серпень	-10.6161
▁захват	-10.6162
09)	-10.6165
пуст	-10.6166
▁штат	-10.6169
ліп	-10.617
рін	-10.6171
ерів	-10.6171
▁прогрес	-10.6172
▁солі	-10.6173
▁Америка	-10.6174
:52	-10.6179
▁безкоштовних	-10.618
▁кого	-10.618
▁класичний	-10.618
▁приходить	-10.6188
▁бак	-10.6188
▁Сад	-10.619
▁ком	-10.619
люб	-10.6193
бур	-10.6193
▁товст	-10.6194
▁проводиться	-10.6195
▁контракт	-10.6198
▁Висота	-10.6199
89)	-10.6199
vo	-10.62
▁низький	-10.62
оро	-10.6203
▁ІТ	-10.6204
▁прив	-10.6206
▁99	-10.6206
ung	-10.6206
єднати	-10.6206
ok	-10.6207
▁меблі	-10.6207
▁зав	-10.6211
DA	-10.6214
▁загроз	-10.6217
▁молочн	-10.6219
tra	-10.622
▁моря	-10.6222
▁корм	-10.6225
▁(33	-10.6225
▁ран	-10.6229
▁подарунків	-10.6231
▁Рос	-10.6231
▁фарб	-10.6233
▁шпалери	-10.6234
rea	-10.6235
:44	-10.6236
▁XHamster	-10.6236
▁будівництва	-10.6236
▁Журнал	-10.6236
яса	-10.6236
▁млн	-10.6245
▁чотирьох	-10.6246
▁простору	-10.6249
▁моє	-10.6253
▁перетворити	-10.6254
▁намагається	-10.6255
▁Стаття	-10.6255
ore	-10.6255
▁←	-10.6255
▁базі	-10.6257
▁Дубай	-10.6262
▁джерел	-10.6266
:41	-10.6266
▁Up	-10.6268
▁птах	-10.627
▁напоїв	-10.6272
▁Використовувати	-10.6273
▁сувор	-10.6275
▁Гре	-10.6278
ep	-10.628
▁Два	-10.6281
cha	-10.6283
▁Стиль	-10.6284
:34	-10.6288
▁вирішили	-10.6292
▁боротися	-10.6292
▁Фільтр	-10.6292
студ	-10.6295
▁Ge	-10.6295
▁Пальма	-10.6296
▁прекрасно	-10.6308
▁комерційн	-10.631
▁максимум	-10.6311
▁TM	-10.6311
▁Мета	-10.6312
▁відкриті	-10.6316
ug	-10.6316
▁партнер	-10.6317
▁мові	-10.6317
▁Сонячний	-10.6318
▁купони	-10.6321
ita	-10.6323
тика	-10.6323
Ін	-10.6324
▁схожі	-10.6324
▁привіт	-10.6328
розум	-10.6328
▁Дитячі	-10.633
▁холодильник	-10.633
юся	-10.6331
▁шин	-10.6332
▁напрямку	-10.6333
нув	-10.6336
▁рейс	-10.6339
6%	-10.634
▁фен	-10.634
зон	-10.6341
▁Кіно	-10.6343
ave	-10.6345
ньої	-10.6345
МІ	-10.6348
ура	-10.6348
▁алкоголю	-10.6348
▁промо	-10.6349
85)	-10.6349
лія	-10.6352
▁проста	-10.6352
EM	-10.6352
▁Зробити	-10.6353
▁гості	-10.6354
ЛИ	-10.6354
▁острова	-10.6356
ює	-10.6358
▁називають	-10.6361
▁виникає	-10.6364
▁поставки	-10.6364
▁різ	-10.6364
иків	-10.6366
ics	-10.6366
▁раціон	-10.6366
ротягом	-10.6366
ica	-10.6367
▁сертифікації	-10.6368
ной	-10.6368
▁назву	-10.6368
▁покласти	-10.6369
MS	-10.637
▁тканин	-10.6371
▁повтор	-10.6371
тний	-10.6371
▁метр	-10.6372
▁тесту	-10.6372
▁англійської	-10.6373
▁дієта	-10.6373
▁випуску	-10.6375
▁Дати	-10.6377
▁футбольн	-10.6378
▁ша	-10.638
▁поїзді	-10.6381
▁Автомобіль	-10.6383
▁Австралії	-10.6386
▁предмет	-10.6388
▁HTC	-10.639
▁вино	-10.639
▁збирається	-10.6391
▁(10	-10.6392
йма	-10.6395
▁гравця	-10.6401
оди	-10.6402
ns	-10.6403
▁Nokia	-10.6405
▁Обличчя	-10.6405
▁високих	-10.6405
▁служб	-10.6406
▁органів	-10.6407
:38	-10.6407
ze	-10.6412
сот	-10.6414
AT	-10.6416
▁контенту	-10.6416
111	-10.6416
ks	-10.6417
ектор	-10.642
▁тексту	-10.6423
нець	-10.6424
▁пор	-10.6424
ler	-10.6426
▁переміщення	-10.6426
wa	-10.6426
ічних	-10.6426
▁адже	-10.6435
окси	-10.6435
▁здійснювати	-10.6436
▁Ян	-10.6438
▁кожну	-10.644
▁Тер	-10.644
▁невеликі	-10.6443
▁Додому	-10.6443
▁реєстрація	-10.6444
▁28,	-10.6447
▁сцена	-10.6448
так	-10.6449
шим	-10.6452
▁дороги	-10.6452
▁Гарненька	-10.6454
▁Електричний	-10.6456
▁коди	-10.6458
▁підключен	-10.6462
▁Звичайна	-10.6462
▁зручний	-10.6462
▁включені	-10.6462
▁смерті	-10.6463
▁підхід	-10.6463
▁Крем	-10.6467
▁Ресторан	-10.6468
▁2/3	-10.6471
▁City	-10.6472
rd	-10.6475
▁класи	-10.6476
плі	-10.6479
▁переконайтеся	-10.6481
▁ввести	-10.6482
▁відрізняються	-10.6482
▁подруга	-10.6482
▁камінь	-10.6483
▁школярка	-10.6484
▁спин	-10.6486
▁приходять	-10.6486
▁красиво	-10.6488
уш	-10.6489
оптичн	-10.6492
▁брокерів	-10.6494
▁#1	-10.6495
▁AC	-10.6497
▁Рішення	-10.6501
▁вибором	-10.6501
▁шкоди	-10.6501
▁пару	-10.6501
HA	-10.6502
▁сплав	-10.6507
ату	-10.6507
▁Макс	-10.6508
▁полювання	-10.6509
▁Ен	-10.6511
▁1500	-10.6513
▁тканина	-10.6513
star	-10.6515
▁самому	-10.6515
▁пластик	-10.6518
red	-10.6518
▁збирати	-10.6522
▁входять	-10.6522
уб	-10.6524
▁брат	-10.6528
▁бр	-10.6529
▁місцевими	-10.6531
▁військов	-10.6532
▁входу	-10.6535
af	-10.6537
▁Візьміть	-10.6539
▁Професійний	-10.6539
▁бачите	-10.6539
▁тегами	-10.6544
▁Корейська	-10.6547
int	-10.6548
атори	-10.6548
▁Приклад	-10.6549
▁статус	-10.6551
TO	-10.6553
▁вишукан	-10.6556
mg	-10.6556
ляція	-10.6558
▁Понеділок	-10.6558
▁статтю	-10.6558
▁синдром	-10.6558
▁красивий	-10.6558
▁сітки	-10.6558
▁січень	-10.6559
лик	-10.656
▁діаметр	-10.6561
▁останніх	-10.6563
▁Запис	-10.6563
дель	-10.6564
▁популярн	-10.6569
▁обладнані	-10.657
льник	-10.6572
▁плоск	-10.6574
єї	-10.6576
ону	-10.6577
▁стають	-10.6577
▁доктор	-10.6577
nu	-10.6578
▁Нінбо	-10.6578
шко	-10.6578
▁фігур	-10.658
▁продовжити	-10.658
▁Cam	-10.658
▁Поточн	-10.6582
ніть	-10.6582
▁таксі	-10.6585
▁передач	-10.6586
▁італійськ	-10.6587
▁гір	-10.6588
тичний	-10.6589
▁інтерв	-10.6592
▁віз	-10.6592
▁ци	-10.6593
▁окремих	-10.6597
The	-10.6605
▁відповідні	-10.6608
–	-10.661
ef	-10.6613
дон	-10.6614
▁харчов	-10.6615
▁Пре	-10.6615
▁Кан	-10.6615
▁сімейн	-10.6615
▁хронічн	-10.6616
▁частіше	-10.6616
▁On	-10.6617
▁американськ	-10.6618
▁правами	-10.662
ens	-10.6622
▁(40	-10.6627
▁130	-10.6627
▁заводу	-10.6631
AD	-10.6631
▁Кращ	-10.6633
▁відносно	-10.6633
▁фі	-10.6635
остей	-10.6635
▁хороша	-10.6636
▁Додаток	-10.6636
▁Якість	-10.6637
▁термінал	-10.6638
▁(8)	-10.6638
▁Ху	-10.664
ast	-10.6645
▁дивно	-10.6646
0.1	-10.6648
cy	-10.6649
#	-10.6651
▁Препарат	-10.6651
ізація	-10.6653
▁способу	-10.6655
▁природи	-10.6655
▁перевезення	-10.6656
мося	-10.666
▁справах	-10.6662
▁органами	-10.6664
PO	-10.6666
▁GB	-10.6666
▁картини	-10.6669
▁дощу	-10.6669
▁іспит	-10.667
диск	-10.6671
▁важких	-10.6675
▁краєвид	-10.6675
▁певних	-10.6675
▁кролика	-10.6677
ІН	-10.6678
9%	-10.6679
▁Во	-10.6679
▁потужн	-10.6679
▁мистецтво	-10.6682
bet	-10.6683
▁підвищити	-10.669
▁чудові	-10.6697
▁міжнародного	-10.6701
▁принцип	-10.6702
▁лампи	-10.6704
▁РЕ	-10.6706
▁(7)	-10.6706
TE	-10.6711
▁американський	-10.6711
▁оренду	-10.6713
▁ідентифікації	-10.6714
▁вражаюч	-10.6714
▁шпигун	-10.6714
▁Сервіс	-10.6715
▁пива	-10.6715
▁показник	-10.6715
▁постачальника	-10.6717
ктор	-10.6719
▁внутрішній	-10.6719
пустити	-10.6721
▁Жіночий	-10.6723
▁портів	-10.6724
wi	-10.6725
▁1:	-10.6726
▁курсу	-10.6727
:50	-10.6728
ная	-10.6729
▁встановлені	-10.6734
▁намагаються	-10.6734
▁медичних	-10.6734
▁сусід	-10.6735
▁стенд	-10.6736
7%	-10.6739
Від	-10.6744
▁газ	-10.6749
▁Шпигун	-10.6749
▁95	-10.6749
▁стероїд	-10.6752
▁Барселони	-10.6753
▁Музика	-10.6753
▁організація	-10.6753
▁Квітня	-10.6754
eu	-10.6755
міністр	-10.6757
ЛІ	-10.6757
su	-10.6757
плав	-10.6761
:40	-10.6762
▁членів	-10.6762
ach	-10.6763
▁ніяк	-10.6765
носити	-10.6766
▁Per	-10.677
tube	-10.6772
▁музей	-10.6773
▁спеціальних	-10.6773
▁Ширина	-10.6773
▁поєднанні	-10.6773
▁погоджуєтеся	-10.6773
▁встановлений	-10.6773
▁Біла	-10.6778
▁людськ	-10.678
▁валюти	-10.6782
чний	-10.6782
ile	-10.6784
ros	-10.6784
▁Pu	-10.679
хай	-10.6792
▁сучасні	-10.6793
▁бачив	-10.6793
єкти	-10.6793
▁форум	-10.6796
gen	-10.6797
▁Bu	-10.6801
▁віддален	-10.6801
▁портал	-10.6804
▁минулого	-10.6804
▁препаратів	-10.6806
▁сама	-10.6806
▁пра	-10.6808
▁здійснюється	-10.6814
▁зразка	-10.6815
van	-10.6816
▁інтерфейсу	-10.6818
▁Sep	-10.6819
▁керує	-10.6819
стор	-10.6822
▁борту	-10.6827
альним	-10.683
Триколор	-10.6832
▁Березень	-10.6832
▁цукерки	-10.6832
▁Життя	-10.6833
▁приготувати	-10.6833
▁мережев	-10.6836
▁студенти	-10.6837
АС	-10.6838
SD	-10.6839
▁Постачальник	-10.684
АЛЬ	-10.6843
▁транспондер	-10.6843
▁історичн	-10.6846
▁показують	-10.6847
▁нормальн	-10.6847
▁Аксесуари	-10.6852
CT	-10.6852
▁вранці	-10.6852
▁GIF	-10.6855
LA	-10.6855
▁факти	-10.686
▁Відкриті	-10.686
▁магазині	-10.6862
▁прямому	-10.6862
мет	-10.6863
▁обран	-10.6864
▁відомі	-10.6867
▁встановлено	-10.6868
▁рекомендую	-10.6872
▁Хеллоуїн	-10.6872
eng	-10.6875
▁дисків	-10.6875
08)	-10.6876
▁0.1	-10.6877
▁напрямки	-10.6877
07)	-10.6879
нього	-10.6881
▁Спочатку	-10.6892
▁сюрприз	-10.6892
▁заняття	-10.6892
▁просування	-10.6892
las	-10.6893
▁57	-10.6894
▁вимогам	-10.6895
один	-10.6899
▁домашній	-10.6899
▁така	-10.69
SM	-10.6901
▁даємо	-10.6902
▁екрані	-10.6906
▁страхов	-10.6909
▁чітко	-10.691
▁горщик	-10.6912
▁точність	-10.6912
вка	-10.6913
▁зліва	-10.6914
▁поромі	-10.6914
▁Важливо	-10.6915
▁Подорож	-10.6916
▁грн	-10.6917
ністю	-10.6917
▁Фе	-10.692
иття	-10.692
je	-10.6922
▁Lu	-10.6922
▁Jo	-10.6923
▁фут	-10.6925
ous	-10.6926
pen	-10.6927
▁монети	-10.6928
▁128	-10.6929
ніше	-10.693
160	-10.6932
▁волокна	-10.6932
▁горшкові	-10.6932
нор	-10.6932
ОБ	-10.6932
▁чистий	-10.6932
nc	-10.6934
▁(103	-10.6936
▁враження	-10.6936
сайти	-10.6937
ose	-10.6939
▁метал	-10.6939
айт	-10.6944
▁700	-10.6945
eo	-10.6946
▁майбутнє	-10.6952
:47	-10.6954
▁Величезний	-10.6955
bar	-10.6955
▁серйозно	-10.6957
▁Grand	-10.6957
▁Hi	-10.6957
▁(38	-10.6957
▁Світлодіодн	-10.6963
▁(50	-10.6967
фи	-10.6968
▁квадрат	-10.6968
▁Technology	-10.6972
▁дітьми	-10.6972
▁регулювання	-10.6974
іон	-10.6974
▁вручну	-10.6975
▁li	-10.6977
ології	-10.6978
king	-10.6982
пускається	-10.6984
лаз	-10.6986
ізм	-10.6988
▁Мон	-10.6988
ano	-10.6989
▁мила	-10.6989
▁WeTek	-10.6991
▁Datasheet	-10.6992
▁Гуанчжоу	-10.6992
▁Урожай	-10.6992
▁сучасних	-10.6992
▁зменшення	-10.6993
▁виробляти	-10.6999
▁Стандартний	-10.7
▁інноваційн	-10.7002
▁додатково	-10.7002
▁привести	-10.7002
▁цими	-10.7007
сна	-10.7008
▁конструкція	-10.7012
▁випадок	-10.7012
▁транспорту	-10.7012
▁адаптер	-10.7012
▁кінець	-10.7013
▁Suite	-10.7014
▁зручності	-10.7014
▁Вар	-10.7015
sex	-10.7015
▁газу	-10.702
St	-10.7024
▁Je	-10.7025
▁імен	-10.7026
▁люкс	-10.7032
▁Всесвіт	-10.7032
▁адвокат	-10.7032
▁уподобань	-10.7032
▁включати	-10.7033
▁професійний	-10.7033
▁перспектива	-10.7033
▁пре	-10.7034
▁нижній	-10.7035
sha	-10.7041
CE	-10.7046
шні	-10.7052
Ка	-10.7053
ара	-10.7061
tion	-10.7061
▁відеоурок	-10.7063
light	-10.7066
▁процесів	-10.7073
▁Площа	-10.7073
▁Хочете	-10.7073
▁легше	-10.7073
▁Машини	-10.7073
гре	-10.7074
HE	-10.7079
▁кращим	-10.7082
▁кави	-10.7082
cu	-10.7083
▁кеш	-10.7086
▁рівнів	-10.7087
▁has	-10.7089
▁весело	-10.7089
of	-10.709
▁Жіноча	-10.7091
▁заяв	-10.7091
▁передбачає	-10.7093
▁печінки	-10.7094
▁сенс	-10.7094
▁дорозі	-10.7094
▁Мат	-10.7095
jo	-10.7097
▁вітамін	-10.7098
▁даху	-10.71
лос	-10.71
▁Online	-10.7103
▁готельним	-10.7106
граф	-10.7107
▁Сент	-10.7111
▁розмірі	-10.7111
yl	-10.7111
▁Cor	-10.7112
▁здатні	-10.7113
▁захищає	-10.7113
▁захоплення	-10.7115
▁національн	-10.7118
ted	-10.712
▁сумки	-10.7127
▁кожна	-10.7127
▁Dec	-10.7132
▁дуб	-10.7133
▁власності	-10.7134
▁святковий	-10.7134
▁пральн	-10.7134
▁Рекомендовані	-10.7134
▁Аналіз	-10.7135
▁загального	-10.7136
▁маршрутизатор	-10.7137
кувати	-10.714
▁Жив	-10.7142
ОВІ	-10.7143
▁мульти	-10.7149
▁зірка	-10.7153
▁сумка	-10.7154
Нарконон	-10.7155
▁вимірювання	-10.7155
DI	-10.7156
ary	-10.7157
▁Ер	-10.7158
▁замінити	-10.7159
▁350	-10.7161
elle	-10.7161
▁блокування	-10.7161
▁книга	-10.7164
Ре	-10.7168
оли	-10.7169
▁Великі	-10.7171
▁експертів	-10.7174
ls	-10.7175
анда	-10.7176
get	-10.7177
100%,	-10.7179
▁книг	-10.718
▁орган	-10.7181
▁розподіл	-10.7186
SR	-10.719
▁PS	-10.7193
▁Генератор	-10.7195
▁гарячі	-10.7195
▁Школа	-10.7195
▁проблемою	-10.72
kg	-10.7201
▁Користувачі	-10.7201
MPEG	-10.7201
лат	-10.7202
▁підвищ	-10.7204
▁учасник	-10.7204
▁тисячі	-10.7205
▁відноситься	-10.7206
▁неправильно	-10.7207
▁календар	-10.7207
пин	-10.7209
▁вуха	-10.721
ьте	-10.7214
але	-10.7215
▁прапор	-10.7215
▁процедур	-10.7217
▁поставляється	-10.7217
тку	-10.7217
▁салон	-10.7218
▁шкірою	-10.7224
gg	-10.7225
▁зацікавлені	-10.7226
▁Різні	-10.7227
▁сіль	-10.7228
мія	-10.7229
Play	-10.723
▁приз	-10.723
▁Телевізійн	-10.7231
▁досвідом	-10.7234
▁3000	-10.7235
▁Промислов	-10.7236
▁Анаболічні	-10.7237
▁шиї	-10.7237
ізо	-10.7239
▁UP	-10.724
ази	-10.7241
ust	-10.7245
▁використані	-10.7246
▁Суд	-10.7247
▁шість	-10.7249
▁си	-10.725
▁85	-10.725
▁кр	-10.7252
▁КА	-10.7253
▁Санта	-10.7254
ero	-10.7254
▁підшипник	-10.7257
De	-10.7262
▁принтер	-10.7263
▁адреси	-10.7266
yo	-10.7268
стин	-10.7268
лам	-10.727
▁літа	-10.7276
▁кол	-10.7276
mas	-10.7278
á	-10.7278
▁кращого	-10.7278
▁160	-10.728
▁Media	-10.7281
▁5.0	-10.7281
єн	-10.7281
▁музичн	-10.7282
▁відомих	-10.7282
▁мною	-10.7282
рем	-10.7285
▁інгредієнтів	-10.7287
156	-10.7287
▁потребують	-10.7287
▁печі	-10.7288
▁VipTube	-10.7299
▁Словник	-10.7299
▁надаємо	-10.73
▁тонн	-10.7301
▁o	-10.7304
▁предмети	-10.7314
py	-10.7317
▁Нове	-10.7319
▁Express	-10.7319
руш	-10.7319
▁усунення	-10.732
▁затишн	-10.732
▁Cha	-10.7321
▁диску	-10.7321
CC	-10.7322
▁запах	-10.7326
▁Is	-10.7329
сну	-10.7329
сан	-10.733
▁Auto	-10.733
lt	-10.733
▁Вся	-10.7334
▁операційної	-10.7335
▁Щ	-10.7337
▁High	-10.7338
явилися	-10.7341
▁(42	-10.7342
▁маркетинг	-10.7342
▁Ек	-10.7343
▁mo	-10.7345
▁Intel	-10.7346
▁старт	-10.7349
▁спальня	-10.735
▁особа	-10.7352
▁360	-10.7355
▁біт	-10.7355
▁Типи	-10.7356
▁прошивки	-10.7359
▁Біткойн	-10.7361
серед	-10.7362
дн	-10.7363
▁реквізити	-10.7364
▁Bet	-10.7366
▁вазі	-10.7366
▁магніт	-10.7367
▁Повітрян	-10.7374
▁кроків	-10.7375
боро	-10.7375
ost	-10.7377
бій	-10.7377
▁підтримкою	-10.7382
▁сподіваюся	-10.7382
▁включити	-10.7383
▁10:00	-10.7386
05)	-10.7386
▁холод	-10.7386
вр	-10.74
▁SAP	-10.7401
▁Бельгія	-10.7403
▁Усередині	-10.7403
▁відстань	-10.7403
▁зберігаються	-10.7405
▁Продукт	-10.7408
▁молода	-10.7409
сни	-10.7411
▁кошики	-10.7413
Більше	-10.7413
▁Виробник	-10.7414
▁думка	-10.7417
▁Ї	-10.7418
▁крут	-10.7421
▁інакше	-10.7424
▁падіння	-10.7424
▁прийшов	-10.7424
▁Florist	-10.7424
▁успішн	-10.7424
▁пал	-10.7425
шов	-10.7425
▁втрата	-10.7426
▁Само	-10.7427
▁sp	-10.7428
йка	-10.743
▁хрест	-10.743
ere	-10.7431
тю	-10.7432
▁зірок	-10.7433
BO	-10.7434
ren	-10.7434
▁вийти	-10.7434
~	-10.7435
▁плата	-10.7436
лайн	-10.7439
▁Свят	-10.744
▁підсилювач	-10.744
▁Тон	-10.7441
nt	-10.7441
▁Su	-10.7444
▁(101	-10.7444
▁загальні	-10.7446
▁бюджет	-10.7447
мпер	-10.7448
ном	-10.7448
▁зібрати	-10.7449
▁Над	-10.745
▁опалення	-10.7451
▁свято	-10.7452
ічна	-10.7452
язової	-10.7459
▁Art	-10.746
▁опублікован	-10.7461
грі	-10.7462
OL	-10.7462
sp	-10.7465
▁Xiaomi	-10.7466
▁Технологія	-10.7466
▁86	-10.7469
▁Курси	-10.7471
2011	-10.7472
▁впливають	-10.7473
▁телеканал	-10.7473
▁(34	-10.7476
СИ	-10.7477
▁маркетингових	-10.7478
гід	-10.7479
▁ге	-10.748
▁di	-10.7483
▁чутлив	-10.7484
▁Тар	-10.7484
▁!!	-10.7485
▁печиво	-10.7487
▁вирішив	-10.7487
▁єдиний	-10.7488
ИТИ	-10.7488
▁нерухомості	-10.7488
▁словник	-10.7488
ult	-10.749
▁написати	-10.749
▁Переклад	-10.7497
▁сніг	-10.7499
▁Хар	-10.7503
▁працівників	-10.7503
зор	-10.7507
▁чіп	-10.7509
▁оцінити	-10.7509
▁хорошим	-10.7509
▁гарантії	-10.7509
▁Грудня	-10.751
▁Блок	-10.7511
▁поверх	-10.7511
row	-10.7512
муть	-10.7512
фо	-10.7513
йський	-10.7515
енти	-10.7515
▁такої	-10.7515
печ	-10.7517
SI	-10.7519
ade	-10.7522
нав	-10.7523
2.1	-10.7523
read	-10.7527
▁зустрічі	-10.7529
9.99	-10.7529
▁Будівництво	-10.753
▁Побачити	-10.753
▁наркотиків	-10.753
▁кажуть	-10.753
▁тести	-10.7532
▁(102	-10.7532
▁підлітковий	-10.7536
▁підстав	-10.7538
▁пасажирів	-10.7539
▁безкоштовним	-10.7542
▁Схід	-10.7543
▁належн	-10.7545
▁Fe	-10.7547
водити	-10.7548
рг	-10.7551
▁зусиль	-10.7551
▁новому	-10.7553
▁молодше	-10.7553
▁реальний	-10.7555
▁причина	-10.7556
RI	-10.7556
▁моєї	-10.7558
114	-10.756
arm	-10.756
явиться	-10.7561
▁сезону	-10.7561
люють	-10.7563
101	-10.7563
пол	-10.7567
▁таку	-10.7568
▁Sea	-10.7568
▁Аудіо	-10.7572
▁Японії	-10.7572
▁думати	-10.7573
▁(48	-10.7573
▁Італійська	-10.7573
▁задовольнити	-10.7573
▁Букет	-10.7574
▁сірий	-10.7575
▁папку	-10.7576
ходить	-10.758
хар	-10.758
▁ділов	-10.7581
ютером	-10.7586
▁персоналу	-10.7586
▁Національний	-10.7587
кування	-10.7589
▁125	-10.759
алися	-10.7593
▁Львів	-10.7594
▁неймовірно	-10.7594
▁анонімн	-10.7594
▁зйомки	-10.7594
ичних	-10.7594
▁декор	-10.7596
▁напів	-10.7597
БА	-10.7598
:43	-10.7598
ida	-10.76
▁нормально	-10.76
▁30%	-10.76
▁SA	-10.7607
тягнути	-10.7608
▁3.0	-10.7608
сервіс	-10.7609
▁Ак	-10.761
▁економ	-10.7612
ving	-10.7612
▁Char	-10.7613
фар	-10.7613
▁YouPorn	-10.7615
▁зомбі	-10.7616
04)	-10.7616
кур	-10.7616
▁Краса	-10.7617
▁(107	-10.7617
▁динамічн	-10.7618
▁кордон	-10.7622
▁саб	-10.7622
▁монет	-10.7626
▁фонд	-10.7629
При	-10.7629
кових	-10.7636
▁необхідних	-10.7637
▁прочитайте	-10.7637
▁контейнер	-10.7638
▁особистої	-10.7638
▁квітка	-10.7638
▁клімат	-10.7638
▁Напишіть	-10.7641
▁AL	-10.7642
IL	-10.7644
▁ПЕТ	-10.7646
▁140	-10.7646
▁Туреччина	-10.765
▁$2	-10.765
жити	-10.7651
log	-10.7652
▁відіграє	-10.7658
▁обробку	-10.7658
▁груд	-10.766
▁промисловість	-10.766
▁Лілії	-10.766
▁виду	-10.7662
▁сайтом	-10.7663
▁номері	-10.7663
cle	-10.7665
zi	-10.7672
▁Девід	-10.7672
mber	-10.7675
КТ	-10.7678
▁Коди	-10.7679
▁додатку	-10.768
▁Бур	-10.7681
▁дату	-10.7682
▁середнього	-10.7682
▁бодібілдингу	-10.7686
бирати	-10.7692
▁найближч	-10.7699
▁рубрики	-10.7701
▁62	-10.7704
▁харчових	-10.7704
let	-10.7708
▁попередній	-10.7708
▁Min	-10.7708
tin	-10.7711
BC	-10.7711
▁кімнаті	-10.7713
альне	-10.7714
UL	-10.7714
▁безперервн	-10.7714
верх	-10.7718
▁mi	-10.7723
▁Vinisus	-10.7723
▁Контроль	-10.7723
▁спеціалізуємося	-10.7723
▁страждають	-10.7723
▁міськ	-10.7724
монт	-10.7725
слав	-10.7725
▁Мова	-10.7727
▁Жорсткий	-10.7728
▁Розділ	-10.773
102	-10.773
▁частка	-10.7731
ТР	-10.7731
sy	-10.7732
gar	-10.7732
▁документі	-10.7732
ливі	-10.7734
OD	-10.7737
ek	-10.7744
▁останнє	-10.7745
▁власну	-10.7745
▁Club	-10.7745
▁портативн	-10.7746
119	-10.7747
спанськ	-10.7747
▁аналогічн	-10.7749
test	-10.7749
▁овочі	-10.7752
▁зелен	-10.7753
ji	-10.7754
▁країна	-10.7755
нц	-10.7757
▁Тексти	-10.7758
ern	-10.776
▁ділянки	-10.7766
▁очікувати	-10.7767
▁Спеціальні	-10.7767
▁люблю	-10.7767
ika	-10.7768
▁бур	-10.7768
▁дата	-10.7769
▁ch	-10.7771
▁описує	-10.7773
овки	-10.7773
▁Інтер	-10.7775
▁автоматичного	-10.7778
▁факторів	-10.7783
лятор	-10.7784
03)	-10.7785
▁тілі	-10.7785
▁партнерськ	-10.7786
ress	-10.7787
▁кап	-10.7788
▁ожиріння	-10.7788
▁рублів	-10.7789
▁домашнє	-10.7789
▁Powered	-10.7793
▁900	-10.7795
▁духов	-10.7796
яють	-10.7801
джен	-10.7804
▁вибирати	-10.7804
▁перехід	-10.7804
▁Тестостерон	-10.7805
▁науки	-10.7805
пусти	-10.7806
стат	-10.7809
▁безпечний	-10.781
▁Green	-10.781
▁молока	-10.781
вки	-10.781
▁зможе	-10.7812
▁стільки	-10.7812
▁CE	-10.7814
▁Серія	-10.7815
▁Оновлено	-10.7815
▁складі	-10.7818
▁заміни	-10.7821
▁Одна	-10.7821
▁планування	-10.7822
▁Ли	-10.7825
ЕС	-10.7826
900	-10.7826
▁несе	-10.7826
▁робочі	-10.7826
2015	-10.7828
ятися	-10.7828
▁Jun	-10.783
▁Амстердам	-10.7832
▁прибутку	-10.7832
▁фокус	-10.7832
▁франк	-10.7832
▁можливі	-10.7833
ua	-10.7836
▁розташован	-10.7836
▁зазначен	-10.7837
▁принести	-10.7839
▁зберігає	-10.7839
▁Кас	-10.784
ленд	-10.7846
▁експорт	-10.7847
ning	-10.7847
ую	-10.7848
▁Показ	-10.7849
▁**	-10.7851
▁Зеландія	-10.7854
▁Товста	-10.7854
▁схуднення	-10.7854
▁Книга	-10.7854
▁Менеджер	-10.7854
▁Північна	-10.7854
▁простих	-10.7854
жні	-10.7855
▁Потужність	-10.7855
▁фаз	-10.7856
▁наразі	-10.7856
▁надані	-10.7856
друж	-10.7856
▁секрет	-10.7857
▁Національн	-10.7858
▁(39	-10.7858
▁будинків	-10.786
ans	-10.7862
02)	-10.7863
app	-10.7863
▁Панчохи	-10.7863
play	-10.7864
▁адміністратора	-10.7864
▁кому	-10.7867
▁Стан	-10.7871
▁установ	-10.7872
ase	-10.7873
▁телевізором	-10.7874
чить	-10.7874
nk	-10.7875
наслідок	-10.7876
▁СЕН	-10.7879
▁писати	-10.7882
ич	-10.7882
sen	-10.7883
прац	-10.7886
iv	-10.7891
▁світлодіодний	-10.7891
▁функціями	-10.7892
book	-10.7893
tel	-10.7894
▁Москва	-10.7898
▁алкоголь	-10.7898
â	-10.7898
▁Вулиця	-10.7898
▁Датчик	-10.7898
аф	-10.7898
▁соромтеся	-10.7898
▁зареєструватися	-10.79
▁соціальні	-10.7901
▁застосовуються	-10.7901
▁стр	-10.7905
▁Del	-10.7905
ливий	-10.7906
ца	-10.7907
▁САН	-10.791
▁праці	-10.7913
бав	-10.7913
▁реакції	-10.792
▁песо	-10.7921
▁літо	-10.7925
CI	-10.7926
▁вільно	-10.7926
▁LibreELEC	-10.7929
▁любителів	-10.7929
06)	-10.793
▁покриттям	-10.7933
118	-10.7934
▁машиною	-10.7934
▁сторона	-10.7934
▁довгостроков	-10.7936
▁інструменту	-10.7936
кладка	-10.7939
str	-10.7941
▁Шеньчжень	-10.7942
▁кільце	-10.7942
cho	-10.7945
▁заснована	-10.795
▁білого	-10.7952
105	-10.7955
har	-10.7955
Ch	-10.7956
▁травм	-10.7959
▁налаштувань	-10.7964
▁пріоритет	-10.7964
▁Bl	-10.7966
▁телефоні	-10.7967
▁німецька	-10.7967
сс	-10.7968
▁Ду	-10.797
цит	-10.7973
▁Німеччині	-10.7974
▁чорні	-10.7976
ріс	-10.798
▁Берлін	-10.7982
рег	-10.7984
▁логотипів	-10.7985
▁відчуває	-10.7986
▁Бюстгальтер	-10.7986
▁Кореспондент	-10.7987
тал	-10.7987
▁Слід	-10.7987
▁шум	-10.7988
▁прагне	-10.7988
▁Студенти	-10.7989
▁плоским	-10.7991
▁спроб	-10.7997
▁(119	-10.8001
▁Кат	-10.8002
ring	-10.8003
CS	-10.8003
▁терміни	-10.8003
ізувати	-10.8004
овою	-10.8004
▁Euro	-10.8008
▁ноутбука	-10.8009
▁поведінки	-10.8009
▁партії	-10.8009
▁заощадити	-10.801
▁настільн	-10.8011
2014	-10.8014
▁Нов	-10.8016
роп	-10.8016
-18	-10.8017
▁атак	-10.802
LP	-10.802
▁Тай	-10.8024
▁пошкоджен	-10.8024
чне	-10.8026
▁гладк	-10.8027
▁Netflix	-10.8031
▁Божевільна	-10.8031
▁зусилля	-10.8031
▁пейзаж	-10.8031
▁***	-10.8031
▁Четвер	-10.8031
▁вивчити	-10.8031
▁швидкістю	-10.8031
▁лікарськ	-10.8032
▁куля	-10.8033
▁ресторанів	-10.8034
цями	-10.8034
▁паливо	-10.8037
▁Обов	-10.8039
▁(35	-10.804
▁рак	-10.804
▁Мас	-10.804
▁діалогов	-10.8041
▁підписку	-10.8041
sia	-10.8043
can	-10.8045
CL	-10.8046
PI	-10.8046
▁Ірландія	-10.8053
▁Крихітна	-10.8053
▁Продуктивність	-10.8053
▁Досить	-10.8053
▁дієти	-10.8054
▁Skype	-10.8054
▁можеш	-10.8056
АК	-10.8056
▁очистити	-10.8056
шити	-10.8057
провід	-10.8058
▁інтелектуальн	-10.806
▁сектор	-10.8062
бан	-10.8063
▁Часто	-10.8067
▁Бразилія	-10.807
▁en	-10.8071
▁Контакт	-10.8072
▁Дані	-10.8073
тру	-10.8073
▁конкурс	-10.8075
брати	-10.8075
}	-10.8075
(22	-10.8076
▁найчастіше	-10.8076
▁ідеальним	-10.8076
▁логотипу	-10.8076
скар	-10.8076
▁(111	-10.8077
ТС	-10.808
▁виробники	-10.8085
ДА	-10.8086
▁сек	-10.8087
▁провайдер	-10.8087
▁матч	-10.8087
▁тв	-10.8091
▁відкрито	-10.8091
▁розміром	-10.8098
▁Зображення	-10.8098
▁рулон	-10.8098
▁рад	-10.8101
▁Краще	-10.8104
грам	-10.8105
єднан	-10.8105
▁клієнтами	-10.8107
▁20%	-10.8111
▁доповнення	-10.8113
RT	-10.8116
лена	-10.8119
оні	-10.812
▁перевірте	-10.8121
▁Зміна	-10.8121
▁паспорт	-10.8121
▁(113	-10.8122
▁роздільн	-10.8124
лун	-10.8124
ром	-10.8125
01)	-10.8128
альбомах	-10.8129
ьо	-10.8133
▁процеси	-10.8138
▁близьк	-10.8142
To	-10.8142
▁Австрія	-10.8143
▁джинси	-10.8143
▁пристроях	-10.8143
▁роблячи	-10.8143
Майорка	-10.8143
▁іноземн	-10.8144
пат	-10.8146
NC	-10.8146
▁подачі	-10.8147
▁Cap	-10.8149
▁пу	-10.8149
(17	-10.8153
стів	-10.8153
inter	-10.8154
▁бу	-10.8157
▁використаний	-10.8159
▁рослина	-10.8159
єри	-10.8161
link	-10.8163
▁хліб	-10.8165
▁1.2	-10.8166
▁енергію	-10.8166
▁публікації	-10.8166
▁сцени	-10.8166
▁можливістю	-10.8166
ейн	-10.8167
рід	-10.8167
▁Феррі	-10.8168
▁ідей	-10.8168
▁водіння	-10.8168
пас	-10.8171
lex	-10.8171
нн	-10.8172
▁кожній	-10.8177
▁Події	-10.8177
▁2.5	-10.8178
тип	-10.8178
ware	-10.8178
2]	-10.8182
ари	-10.8184
▁Micro	-10.8188
▁збору	-10.8189
▁RedTube	-10.8189
▁Греція	-10.8189
▁спортивні	-10.8191
▁Середній	-10.8191
lon	-10.8193
▁тепла	-10.8193
▁заверш	-10.8193
▁(9)	-10.8193
▁голова	-10.8195
▁You	-10.8199
▁маю	-10.8199
▁голосів	-10.8204
▁(0	-10.8204
LT	-10.8206
лист	-10.8206
▁додавати	-10.8206
сервер	-10.8209
▁першої	-10.821
▁положенні	-10.8211
▁Простий	-10.8211
▁Особливо	-10.8212
▁біг	-10.8212
▁(37	-10.8213
xBet	-10.8214
▁показано	-10.8217
лян	-10.8219
▁високоякісн	-10.8224
▁Йо	-10.8229
▁собака	-10.8231
ляє	-10.8232
▁ступінь	-10.8234
▁забудьте	-10.8234
▁розмістити	-10.8234
▁людину	-10.8234
▁практики	-10.8234
▁Пекін	-10.8235
▁пароля	-10.8236
▁ліків	-10.8236
▁Лас	-10.824
▁Азії	-10.8241
▁Інструмент	-10.8243
(16	-10.8247
зії	-10.8247
▁Ол	-10.825
▁Яка	-10.8253
▁природно	-10.8254
▁(108	-10.8255
▁ефективні	-10.8257
▁Фістинг	-10.8257
▁засобу	-10.8257
▁кнопка	-10.8257
▁Гроші	-10.8257
▁Адріан	-10.8257
▁гіпер	-10.8257
▁ознаки	-10.8258
▁загальної	-10.826
▁столу	-10.826
und	-10.8263
▁актуальн	-10.8264
▁виходу	-10.8264
▁Ver	-10.8267
▁цілий	-10.8268
пот	-10.827
PC	-10.827
▁режиму	-10.8275
▁представник	-10.8275
▁фл	-10.8278
▁тваринами	-10.8279
▁Замовлення	-10.828
▁медицини	-10.828
▁необхідний	-10.828
▁прекрасна	-10.828
▁відсоток	-10.828
▁іграшка	-10.8281
▁Мод	-10.8283
▁Український	-10.8286
ейк	-10.8288
sat	-10.8289
▁запалення	-10.8291
▁гормон	-10.8291
▁27500,	-10.8292
▁Ke	-10.8292
107	-10.8292
€	-10.8295
▁магазину	-10.8296
▁природного	-10.8298
▁Сто	-10.8301
▁Глобальн	-10.8303
▁вночі	-10.8303
▁Максимальна	-10.8303
ction	-10.8303
▁Трі	-10.8305
▁правда	-10.8308
▁Материнство	-10.8308
▁представлені	-10.8309
6.0	-10.8312
▁людиною	-10.8312
▁даного	-10.8312
RS	-10.8313
▁кислота	-10.8318
▁свята	-10.8319
▁прилад	-10.832
▁ну	-10.832
▁розсилки	-10.8326
▁спортивних	-10.8326
▁ворота	-10.8331
носять	-10.8332
▁файлами	-10.8335
галь	-10.8336
ску	-10.8338
3">	-10.8341
▁Ціпонька	-10.8349
▁квитка	-10.8349
єкцій	-10.8349
▁ефективний	-10.8349
▁зовнішнього	-10.8349
▁Hu	-10.8349
▁судин	-10.835
ництво	-10.8351
▁голову	-10.8352
▁03:00	-10.8352
▁новими	-10.8356
▁деякими	-10.8357
×	-10.8357
ING	-10.8358
▁такому	-10.8361
ami	-10.8365
▁починають	-10.8366
▁Pe	-10.8366
dev	-10.8367
▁готують	-10.8371
▁Взуття	-10.8372
▁спостереження	-10.8372
різати	-10.8372
lia	-10.8373
▁Дека	-10.8374
▁9.	-10.8375
▁сильні	-10.8375
▁Зробіть	-10.8377
▁вирощування	-10.8378
▁головного	-10.838
▁викликають	-10.8381
▁пісні	-10.8381
програм	-10.8381
лку	-10.8382
▁Єдин	-10.8387
▁супутников	-10.8391
▁нейлон	-10.8392
▁демо	-10.8393
гал	-10.8393
атора	-10.8395
▁Турецька	-10.8395
▁навігація	-10.8395
▁напруги	-10.8395
▁небезпечних	-10.8395
єкції	-10.8395
▁окремі	-10.8395
▁оцінка	-10.8395
▁Джинси	-10.8396
▁приєднатися	-10.8396
▁рукавички	-10.8396
lf	-10.8396
▁ду	-10.84
▁дешеві	-10.8401
ався	-10.8402
тинг	-10.8402
▁інша	-10.8403
▁приводу	-10.8403
тел	-10.841
▁Chi	-10.8411
▁ETH	-10.8415
▁натиснути	-10.8415
▁невеликих	-10.8418
▁дитині	-10.8418
▁бачили	-10.8418
▁повна	-10.8419
шив	-10.842
йшли	-10.8421
▁інтернеті	-10.8421
▁Cat	-10.8422
▁Рецепти	-10.8423
ava	-10.8424
▁почали	-10.8426
▁перше	-10.8426
vid	-10.8427
▁край	-10.8428
тил	-10.8428
ете	-10.8433
жит	-10.8433
омешкання	-10.8438
▁гарний	-10.8441
▁Насправді	-10.8442
▁Іграшка	-10.8442
▁Автоматична	-10.8442
▁Форма	-10.8443
▁пацієнт	-10.8448
ушка	-10.8451
▁відносин	-10.8453
веден	-10.8457
▁авіа	-10.8461
▁батарей	-10.8465
▁Польща	-10.8465
▁виникнення	-10.8465
▁as	-10.8468
▁зубн	-10.8468
▁тиском	-10.8469
▁Додатков	-10.8471
▁сих	-10.8474
ox	-10.8475
ДІ	-10.8476
day	-10.8476
рав	-10.8477
▁хлопці	-10.8478
▁антивірус	-10.8481
▁частоти	-10.8483
2000	-10.8484
▁2-3	-10.8484
МАРТЕН	-10.8488
▁Электронн	-10.8488
▁напевно	-10.8488
▁Дубаї	-10.8488
▁обмежень	-10.849
▁Функція	-10.8491
▁рубати	-10.8492
▁особистий	-10.8493
▁CS	-10.8498
клас	-10.8501
тик	-10.8508
▁Gold	-10.851
▁грудаста	-10.8512
▁поняття	-10.8512
▁сертифікати	-10.8513
▁сьогоднішній	-10.8514
▁Установка	-10.8516
ального	-10.8519
▁конкурент	-10.852
▁GP	-10.8521
▁po	-10.8523
▁Sun	-10.8524
▁банку	-10.8527
▁Використовуючи	-10.8527
▁кондиціонером	-10.8527
сне	-10.8527
▁програмування	-10.8531
▁наведено	-10.8532
▁Sim	-10.8534
ніс	-10.8535
▁професійні	-10.8535
▁Гольф	-10.8535
▁Токіо	-10.8535
▁барабан	-10.8535
▁намалювати	-10.8535
▁тарифи	-10.8535
▁структури	-10.8536
▁Групи	-10.8536
зин	-10.8536
▁МО	-10.8538
▁Китайський	-10.8541
рія	-10.8541
▁фахівців	-10.8542
▁ГБ	-10.8543
DE	-10.8544
time	-10.8546
▁остаточн	-10.8546
ованого	-10.8546
▁->	-10.8548
▁Спортивні	-10.855
▁гідро	-10.8553
▁ар	-10.8553
НД	-10.8557
▁(109	-10.8558
▁дочка	-10.8558
▁фільмів	-10.856
▁Дар	-10.856
▁Vista	-10.8561
над	-10.8561
▁0.2	-10.8569
gr	-10.857
дача	-10.857
yn	-10.8571
▁Yu	-10.8574
▁кордоном	-10.8576
▁Подорожі	-10.8576
▁запити	-10.8579
OT	-10.8581
▁арабська	-10.8582
▁дар	-10.8582
▁Тиснява	-10.8582
▁винятком	-10.8582
▁витрачати	-10.8582
▁калорій	-10.8582
▁колекція	-10.8582
▁сторону	-10.8582
▁азартн	-10.8582
▁виникають	-10.8582
доб	-10.8583
▁столом	-10.8583
▁HP	-10.8583
▁діабет	-10.8584
мед	-10.8585
free	-10.859
ator	-10.8591
▁Догляд	-10.8591
▁міжнародний	-10.8598
▁плану	-10.86
▁низьким	-10.8605
▁енергія	-10.8605
▁моїх	-10.8605
▁власних	-10.8606
▁Любитель	-10.8606
▁усьому	-10.8606
▁Нам	-10.8609
▁ча	-10.8611
жені	-10.8612
▁недоліки	-10.8612
phone	-10.8613
dr	-10.8615
cr	-10.8615
form	-10.8616
▁1200	-10.8616
▁вигідн	-10.8616
VA	-10.862
▁оптим	-10.8621
xi	-10.8621
ain	-10.8623
токсичн	-10.8625
Щ	-10.8628
ОЛ	-10.8628
▁450	-10.8629
▁Лютого	-10.863
▁резервуар	-10.863
▁біографія	-10.863
▁попередження	-10.863
▁Via	-10.8631
▁сума	-10.8631
водить	-10.8631
gy	-10.8632
▁(110	-10.8632
▁телефоном	-10.8632
▁ЗМІ	-10.864
▁головним	-10.8643
▁збори	-10.8645
▁мокр	-10.8651
▁миттєв	-10.8651
▁транспортних	-10.8652
▁Найдовші	-10.8653
▁Весілля	-10.8653
▁Переконайтеся	-10.8653
▁додатковий	-10.8653
▁поромів	-10.8653
хол	-10.8654
▁міцність	-10.8654
вок	-10.8656
▁sa	-10.8656
▁Ель	-10.8659
▁мою	-10.866
▁Аромат	-10.8666
▁регіон	-10.8667
Porn	-10.8667
▁2004	-10.8667
▁долучення	-10.8668
▁трекер	-10.8669
дні	-10.8674
EX	-10.8675
▁Bi	-10.8677
▁Аматорський	-10.8677
▁Брудна	-10.8677
▁Співчуття	-10.8677
▁Нарешті	-10.8677
▁опитування	-10.8677
▁(118	-10.8678
▁пити	-10.8679
▁цінами	-10.868
▁тример	-10.8683
▁теплов	-10.8684
▁розп	-10.8684
▁мода	-10.8684
▁БЕЗКОШТОВНО	-10.8687
UR	-10.8689
▁подати	-10.8689
▁чорного	-10.8689
▁se	-10.8689
▁шукає	-10.869
▁Blo	-10.8691
▁графічн	-10.8692
\	-10.8692
▁PM	-10.8694
▁навчальні	-10.8694
▁вентилятор	-10.8699
▁легкого	-10.87
▁надіслати	-10.8701
▁підібрати	-10.8701
▁довше	-10.8701
▁іспанська	-10.8702
▁поширення	-10.8704
▁вихідні	-10.8708
ведені	-10.8711
чна	-10.8711
▁1)	-10.8712
2.0	-10.8712
▁давно	-10.8713
CK	-10.8714
яє	-10.8716
прес	-10.8717
пет	-10.8718
▁Білл	-10.8719
▁Види	-10.8721
▁частота	-10.8722
▁вчитель	-10.8725
▁синтез	-10.8725
▁випадково	-10.8725
▁рекомендован	-10.8732
Дж	-10.8735
▁порома	-10.8736
▁квітковий	-10.8738
ful	-10.8741
▁Ком	-10.8742
▁Причини	-10.8743
▁Порівняння	-10.8749
▁вертикальн	-10.8749
изм	-10.8749
▁показали	-10.875
▁більшу	-10.875
ванні	-10.8751
▁колег	-10.8753
ході	-10.8753
▁кислот	-10.8753
▁встановив	-10.8755
▁вітальн	-10.8755
▁стек	-10.8759
116	-10.8764
▁синтетичн	-10.8766
▁власників	-10.8767
TI	-10.8768
▁найсучасніші	-10.8769
▁закінч	-10.877
мод	-10.8771
▁Дівчата	-10.8773
▁ввечері	-10.8773
AP	-10.8774
▁Служба	-10.8775
можлив	-10.8775
▁безпека	-10.8776
▁призначен	-10.8777
▁Чорні	-10.8779
▁Net	-10.878
▁температурою	-10.878
▁появи	-10.878
фф	-10.8783
▁стеж	-10.8783
▁кадр	-10.8784
▁Mon	-10.8784
лять	-10.8785
▁урок	-10.8785
▁велосипеди	-10.8786
▁острові	-10.8787
▁покупці	-10.8787
▁KB	-10.8792
далі	-10.8792
▁зворотн	-10.8793
лина	-10.8794
сок	-10.8794
▁Пас	-10.8797
▁Автобус	-10.8797
▁вказує	-10.8797
▁дев	-10.88
▁активності	-10.88
▁WiFi	-10.8803
len	-10.8803
▁2)	-10.8803
▁Вол	-10.8808
▁корал	-10.881
▁Одно	-10.8813
als	-10.8814
Останні	-10.8814
▁кольоров	-10.8815
МО	-10.8816
ture	-10.8818
▁Світло	-10.8819
▁Скачати	-10.8821
▁сидіння	-10.8821
▁Досвід	-10.8821
тс	-10.8822
▁реальному	-10.8823
4.1	-10.8823
▁активації	-10.8824
▁Стандарт	-10.8826
обов	-10.8827
▁Додайте	-10.8827
дарунків	-10.8828
▁1080	-10.883
хов	-10.8837
▁спрямован	-10.8837
▁використовуван	-10.8838
▁СТ	-10.884
▁Різдвян	-10.8841
гри	-10.8844
▁Firefox	-10.8845
▁відсотків	-10.8845
Ex	-10.8846
▁живота	-10.8846
▁потоку	-10.8847
▁куріння	-10.8847
▁кабін	-10.8849
▁отриман	-10.885
▁me	-10.885
▁підвищує	-10.8851
▁Аб	-10.8855
▁своєчасно	-10.8857
▁ц	-10.8859
▁водян	-10.8859
▁приховані	-10.8864
бул	-10.8865
▁гаманець	-10.8869
▁традицій	-10.887
▁рюкзак	-10.887
▁партія	-10.887
▁власного	-10.887
▁беруть	-10.887
▁(10)	-10.8871
▁сексуальний	-10.8873
▁чарівний	-10.8876
рет	-10.8878
▁Гербери	-10.8878
▁ящик	-10.8878
▁туристичних	-10.8881
чку	-10.8882
UN	-10.8885
ичні	-10.8887
▁кроком	-10.8887
”,	-10.8888
▁стежити	-10.8889
жертв	-10.889
▁чекає	-10.8891
▁Дерев	-10.8891
сло	-10.8892
▁барі	-10.8893
▁Азіатка	-10.8894
▁дверей	-10.8894
▁прасування	-10.8894
▁трійця	-10.8894
міст	-10.8894
▁поновлення	-10.8894
▁FSX	-10.8895
▁патент	-10.8897
▁відповідних	-10.8898
▁спільноти	-10.8899
104	-10.8902
▁першому	-10.8903
▁бета	-10.8904
▁Cu	-10.8904
▁Сірий	-10.8907
AG	-10.8908
▁надаєте	-10.8909
MO	-10.891
▁спині	-10.891
▁жодних	-10.8911
еф	-10.8914
109	-10.8914
▁незалежн	-10.8914
▁Джо	-10.8916
2.00	-10.8916
Bournemouth	-10.8918
▁vBET	-10.8919
▁злочин	-10.8919
ІЙ	-10.8919
001	-10.8921
БР	-10.8922
▁кліп	-10.8922
▁медичні	-10.8922
ct	-10.8923
▁сигналу	-10.8925
▁баз	-10.8926
▁сік	-10.8926
▁Менше	-10.8926
ado	-10.8927
▁дійсн	-10.8929
бори	-10.8934
112	-10.8936
▁знаменит	-10.8937
▁SSD	-10.8937
NT	-10.8937
▁рекламу	-10.8938
▁(105	-10.8938
▁КБ	-10.894
▁Китайська	-10.8942
▁підготувати	-10.8943
▁спілкуватися	-10.8943
▁CSGO	-10.8943
▁бензин	-10.8943
▁межрасовий	-10.8943
▁зоні	-10.8945
▁Завантажте	-10.8946
▁любите	-10.8947
▁IPad	-10.8948
▁рулетка	-10.8949
▁дзеркало	-10.8949
▁КО	-10.895
tina	-10.8951
▁моно	-10.8952
▁проектування	-10.8954
▁Max	-10.8954
▁сервісу	-10.8955
елю	-10.8955
▁Fu	-10.8958
▁Мастурбація	-10.8959
▁камені	-10.8959
▁хвилини	-10.896
▁ха	-10.8963
▁камер	-10.8963
108	-10.8963
Co	-10.8966
▁Подивіться	-10.8967
▁інфекції	-10.8967
ect	-10.8968
▁рухатися	-10.8969
▁Маріо	-10.8969
яток	-10.897
▁Нехай	-10.8972
вантаження	-10.8975
ull	-10.8981
▁знайде	-10.8981
язування	-10.8984
▁(116	-10.8984
use	-10.8985
▁Користувач	-10.8985
▁66	-10.8988
▁88	-10.8989
ГО	-10.899
▁найбільший	-10.899
▁Відновлення	-10.8992
▁парковка	-10.8992
▁дасть	-10.8994
▁всіма	-10.8997
▁Feb	-10.8999
▁Кот	-10.8999
Те	-10.9
▁кондиціонер	-10.9
адресу	-10.9004
▁приголомшлив	-10.9005
▁Тре	-10.9006
▁рахунки	-10.9006
▁ясно	-10.9007
▁напис	-10.9007
▁Охорона	-10.9008
atch	-10.9009
▁(+	-10.9011
▁фунтів	-10.9012
▁Тор	-10.9016
zo	-10.9016
▁назавжди	-10.9017
▁рожевих	-10.9017
▁обговорення	-10.9017
▁депозиту	-10.9018
▁влади	-10.9018
▁Дивитися	-10.9019
▁використовували	-10.9019
▁слідувати	-10.902
▁пальців	-10.9021
qu	-10.9022
жка	-10.9022
▁задоволені	-10.9022
пак	-10.9023
▁попереднього	-10.9023
▁автоматичн	-10.9024
▁точок	-10.9025
ath	-10.9027
▁зовнішніх	-10.9027
ади	-10.9028
▁чорно	-10.9028
▁Вір	-10.903
▁Марк	-10.903
Па	-10.9036
▁MI	-10.9037
тт	-10.9037
▁корисним	-10.9039
▁Вихід	-10.904
▁Категорії	-10.9041
▁Цукерки	-10.9041
▁важливих	-10.9041
▁лялька	-10.9041
▁IMG	-10.9041
▁підлоги	-10.9041
▁інтегрован	-10.9042
▁Зелений	-10.9043
▁дошка	-10.9045
ОД	-10.905
180	-10.9056
▁схем	-10.9059
▁ролі	-10.9059
вет	-10.9061
ючий	-10.9063
якщо	-10.9065
робле	-10.9066
▁BlackBerry	-10.9066
▁Будапешт	-10.9066
▁наступному	-10.9067
нди	-10.9067
▁Оберіть	-10.9069
▁И	-10.907
▁професійним	-10.9076
▁смартфонів	-10.9076
▁Др	-10.908
▁пакеті	-10.9085
▁найкраща	-10.9086
▁циліндр	-10.9086
anna	-10.9087
▁потужний	-10.9087
▁кишені	-10.9091
▁здатності	-10.9091
▁найменш	-10.9091
єрі	-10.9091
▁Tor	-10.9092
▁Відкритий	-10.9094
▁дозвіл	-10.9095
her	-10.9096
▁FEC	-10.9096
орд	-10.9096
▁(104	-10.9097
▁порядок	-10.9098
кв	-10.9102
▁рядок	-10.9103
▁межі	-10.9106
▁шкір	-10.9106
▁хвороба	-10.9108
▁втрат	-10.9109
▁приймають	-10.9109
▁Royal	-10.911
▁63	-10.9112
▁розроблені	-10.9114
▁уряд	-10.9114
▁Марракеш	-10.9116
▁вистачає	-10.9116
бре	-10.9116
▁корінь	-10.9117
gan	-10.9118
▁Off	-10.9118
▁Кро	-10.9119
▁макіяж	-10.912
▁віджет	-10.912
ff	-10.912
▁творч	-10.9123
чор	-10.9124
▁струм	-10.9125
▁програмою	-10.913
язана	-10.9134
IF	-10.9138
▁поступово	-10.9139
▁партнера	-10.9139
▁серцев	-10.914
▁чоботи	-10.9141
▁Чарівна	-10.9141
▁Фіксован	-10.9141
▁Перетворення	-10.9141
▁Server	-10.9141
▁живуть	-10.9142
▁замок	-10.9143
▁жіночі	-10.9144
язати	-10.9145
▁пляжу	-10.9146
")	-10.9146
pm	-10.9146
ходом	-10.9147
▁бренду	-10.9148
▁елегантн	-10.9151
▁AP	-10.9157
ola	-10.9159
9.00	-10.916
▁контакти	-10.9162
▁друга	-10.9163
▁іноземних	-10.9165
▁facebook	-10.9166
▁Пунта	-10.9166
▁бій	-10.9167
бет	-10.9168
▁кабінет	-10.9172
▁спец	-10.9173
▁громадян	-10.9173
йл	-10.9177
▁Mini	-10.9177
▁Публічний	-10.9179
▁відома	-10.9182
▁любителі	-10.9183
▁Джа	-10.9184
▁Time	-10.9184
▁куб	-10.9186
EE	-10.9187
ali	-10.9187
ier	-10.9187
▁навчальних	-10.9187
▁Друг	-10.9188
▁Тканина	-10.9191
▁здійснити	-10.9191
▁площа	-10.9191
video	-10.9191
▁автопарк	-10.9191
▁Майстер	-10.9192
▁куди	-10.9192
амід	-10.9192
▁поширен	-10.9193
▁Спальня	-10.9195
▁активність	-10.9196
▁встановлювати	-10.9196
кач	-10.9196
▁guy	-10.9198
HO	-10.9205
▁середовищі	-10.9207
▁пакетів	-10.9207
ЕЙ	-10.9207
▁Душ	-10.9208
мати	-10.9213
ПО	-10.9214
▁яскраві	-10.9215
▁Існують	-10.9216
▁кампанії	-10.9216
▁ОАЕ	-10.9216
▁статей	-10.9216
▁буд	-10.9216
▁послугами	-10.9217
▁висота	-10.9218
▁Авторськ	-10.9218
▁трафік	-10.9218
▁дози	-10.9219
▁прояв	-10.9219
держ	-10.922
▁птахів	-10.922
▁звуков	-10.922
▁постійного	-10.922
▁Відмінно	-10.9221
▁ознак	-10.9221
чну	-10.9225
▁Trans	-10.9228
EA	-10.9229
▁Банк	-10.9229
▁дро	-10.9231
▁давайте	-10.9231
▁послугу	-10.9234
▁обер	-10.9238
eb	-10.9239
VE	-10.9241
ray	-10.9241
▁(51	-10.9241
▁бавовнян	-10.9241
▁кухонн	-10.9241
▁повідомити	-10.9241
▁Шорти	-10.9241
▁трансфер	-10.9242
▁вал	-10.9242
▁сталеві	-10.9243
-40	-10.9244
тері	-10.9247
ping	-10.9248
▁доданий	-10.925
спо	-10.9251
220	-10.9251
▁DNS	-10.9251
тури	-10.9257
▁актор	-10.9257
ey	-10.9261
”.	-10.9262
ski	-10.9262
-16	-10.9264
туп	-10.9264
▁вол	-10.9264
▁Завжди	-10.9266
▁Оцінка	-10.9266
▁Хороший	-10.9266
▁апартаменти	-10.9266
▁Арабки	-10.9266
▁Рі	-10.9266
▁Акваріум	-10.9266
▁Швидкий	-10.9266
▁Системи	-10.9267
▁розповсюдження	-10.9267
служ	-10.9267
▁проксі	-10.9268
▁учасників	-10.9268
▁Купони	-10.9269
▁утримання	-10.927
ури	-10.927
▁Дух	-10.9271
▁квартири	-10.9272
▁фе	-10.9272
zz	-10.9275
▁виробником	-10.9276
▁Тра	-10.9277
▁туристів	-10.9278
ign	-10.9279
NA	-10.9279
140	-10.928
▁Європейська	-10.9282
лено	-10.9284
▁Буд	-10.9286
▁наявн	-10.9287
▁енергетичн	-10.9289
▁CA	-10.9291
▁охоплює	-10.9292
▁хорошу	-10.9292
▁порівняти	-10.9292
▁ПЕРЕГЛЯДИ	-10.9292
▁IcePorn	-10.9292
▁Дія	-10.9292
▁Підключіть	-10.9292
▁назви	-10.9293
▁веселощі	-10.9293
▁PHP	-10.9293
▁золота	-10.9295
▁складні	-10.9297
▁клавіш	-10.9297
фен	-10.9298
ala	-10.9298
ria	-10.9302
▁адміністратор	-10.9305
ерг	-10.9309
▁5000	-10.9312
▁соку	-10.9312
спе	-10.9314
чий	-10.9315
▁Ай	-10.9315
▁подія	-10.9316
▁керівник	-10.9317
▁торрент	-10.9317
▁Майнінг	-10.9317
▁Holm	-10.9318
▁Ста	-10.9318
▁кодом	-10.932
▁розробник	-10.9321
ona	-10.9322
▁перша	-10.9322
▁видання	-10.9322
▁(115	-10.9323
▁навчальн	-10.9324
▁War	-10.9326
▁бен	-10.9327
car	-10.9328
▁виправлення	-10.9328
▁відповідності	-10.9328
овування	-10.9328
RD	-10.9328
▁Русский	-10.9329
луг	-10.933
▁тварина	-10.9333
▁Подій	-10.9335
▁підключити	-10.9337
▁природним	-10.9339
ела	-10.9342
▁перевищує	-10.9342
▁можливе	-10.9343
▁Наука	-10.9345
▁DJ	-10.9346
▁зайв	-10.9346
▁клей	-10.9347
▁природний	-10.9347
▁Фу	-10.9348
280	-10.9349
dia	-10.935
js	-10.935
▁Кап	-10.9351
▁штучн	-10.9351
▁розваги	-10.9352
▁величезн	-10.9352
▁Бра	-10.9352
▁підтримується	-10.9353
▁ресурс	-10.9356
▁лазер	-10.9356
UA	-10.9357
ib	-10.9357
NS	-10.936
▁(41	-10.936
▁слух	-10.936
▁зварювання	-10.9362
син	-10.9363
гр	-10.9363
▁виборі	-10.9364
▁Вирішуйте	-10.9368
▁Спосіб	-10.9368
▁напруга	-10.9368
▁фізичних	-10.9368
▁Ультразвуковий	-10.9369
▁ради	-10.9372
▁необхідність	-10.9372
ini	-10.9372
▁приймач	-10.9374
ставити	-10.9374
▁продавати	-10.9376
▁Теґи	-10.9376
більш	-10.9376
ютерних	-10.9376
▁Цю	-10.9377
▁нею	-10.9381
▁Курс	-10.9381
▁Mu	-10.9385
▁потенційн	-10.9385
code	-10.9388
▁Загальний	-10.9391
70=	-10.9391
▁операційн	-10.9392
▁додайте	-10.9392
▁Фен	-10.9393
▁сировини	-10.9393
▁корисних	-10.9393
▁незважаючи	-10.9393
▁(114	-10.9395
less	-10.9396
▁дистриб	-10.9396
тесь	-10.9399
ses	-10.9399
▁минулому	-10.9399
nder	-10.9399
▁нашою	-10.9402
▁мапі	-10.9403
▁мільйон	-10.9404
EP	-10.9404
косметичним	-10.9404
▁гвинт	-10.9405
▁WP	-10.9405
БІ	-10.9407
oss	-10.9411
продовж	-10.9411
▁Міжрасовий	-10.9411
▁цар	-10.9412
▁давати	-10.9413
▁базу	-10.9414
▁трафіку	-10.9415
▁98	-10.9416
▁школі	-10.9419
▁Design	-10.9419
▁САНКТ	-10.9419
▁Лос	-10.9419
▁Har	-10.942
тувати	-10.9421
▁зір	-10.9425
»).	-10.9426
ani	-10.943
▁натиснувши	-10.9433
ерт	-10.9436
нат	-10.9438
хова	-10.944
▁car	-10.9442
▁звуку	-10.9443
▁надійно	-10.9443
▁трас	-10.9443
▁рідн	-10.9445
▁Вівторок	-10.9445
▁Допоможіть	-10.9445
▁Проблеми	-10.9445
▁врятувати	-10.9445
▁освіту	-10.9445
▁ліжок	-10.9445
▁зробить	-10.9445
▁Touch	-10.9445
▁оновлень	-10.9445
▁Mod	-10.9446
▁Іран	-10.9451
шифр	-10.9453
▁IT	-10.9456
▁безкоштовними	-10.9456
2.5	-10.9456
▁суду	-10.9459
▁дюйм	-10.946
▁магазини	-10.946
▁закінчити	-10.9461
▁Spy	-10.9462
ju	-10.9464
▁коло	-10.9464
▁Med	-10.9464
▁підписки	-10.9464
tv	-10.9466
▁відходів	-10.9467
різан	-10.9468
▁tr	-10.9469
▁трави	-10.947
▁Хол	-10.947
▁Мережа	-10.9471
▁Шведська	-10.9471
▁Розваги	-10.9471
▁барвист	-10.9471
▁РОЗ	-10.9471
▁визначає	-10.9471
▁бажа	-10.9472
▁Раз	-10.9473
▁Soft	-10.9473
▁знаменитості	-10.9473
овка	-10.948
воло	-10.9481
▁Клі	-10.9482
4.00	-10.9483
бирають	-10.9484
ліжко	-10.9485
▁болі	-10.9485
рма	-10.9486
nes	-10.949
▁MT	-10.9492
▁5%	-10.9492
▁(200	-10.9495
▁Стамбул	-10.9496
▁роздрібн	-10.9496
▁стрічки	-10.9496
▁триває	-10.9497
▁Шоу	-10.9497
▁бачу	-10.9498
▁оптов	-10.9499
ально	-10.9501
▁імпорту	-10.9502
▁самий	-10.9505
▁Коледжа	-10.9506
Net	-10.9507
bre	-10.9508
ІЛЬ	-10.9509
бель	-10.9509
▁риба	-10.9512
▁особам	-10.9516
zy	-10.9516
-50	-10.9517
ves	-10.9517
▁основний	-10.9519
▁нагород	-10.952
▁Tr	-10.952
▁Барбі	-10.9527
онг	-10.9528
▁додатка	-10.9529
▁Сполучених	-10.953
▁Біл	-10.9532
▁знайом	-10.954
-100	-10.954
▁свіжі	-10.954
▁піч	-10.9541
▁втратити	-10.9542
▁розкішн	-10.9545
▁вживання	-10.9545
▁звіти	-10.9545
▁зовнішні	-10.9546
PlayItalianLotto	-10.9548
Петербург	-10.9548
▁Ultra	-10.9548
Button	-10.9548
▁шкідливих	-10.9549
▁акне	-10.9549
▁гарантувати	-10.9549
PE	-10.955
▁напад	-10.9552
ЕН	-10.9554
▁Остання	-10.9555
▁Назад	-10.9556
▁мінімум	-10.9556
tech	-10.9556
▁теніс	-10.9557
увань	-10.9558
▁вважати	-10.956
1]	-10.9561
▁пригод	-10.9562
▁магазинів	-10.9566
▁країну	-10.9567
▁гірськ	-10.9568
▁різного	-10.9569
▁0.00	-10.957
▁cookies	-10.9571
дри	-10.9573
▁стоп	-10.9574
▁iPad	-10.9574
▁схуднути	-10.9574
▁ширина	-10.9574
▁Природа	-10.9574
▁кабелю	-10.9574
▁трансляції	-10.9575
пл	-10.9575
▁частоті	-10.9576
▁модн	-10.9577
▁кондитерськ	-10.9578
▁біла	-10.9579
▁Team	-10.9581
бран	-10.9583
▁світлодіод	-10.9584
▁кінцевому	-10.9585
▁Нор	-10.9587
TH	-10.9587
bel	-10.9589
▁Бал	-10.9589
▁Бр	-10.959
▁(44	-10.9594
▁повідомляє	-10.9599
▁Європейськ	-10.9599
lam	-10.96
Місцезнаходження	-10.96
▁Мюнхен	-10.96
▁Потрібно	-10.96
▁інфекцій	-10.96
соль	-10.96
▁податку	-10.96
▁DHL	-10.96
▁Icecat	-10.96
▁Хліб	-10.9601
▁значить	-10.9601
▁численні	-10.9601
▁виконує	-10.9602
▁підлітки	-10.9604
▁жертв	-10.9605
НЯ	-10.9605
оксид	-10.9606
▁Показан	-10.9606
юйте	-10.9607
▁серйозні	-10.9609
▁особистих	-10.9609
▁сертифікован	-10.9611
▁тариф	-10.9611
▁справ	-10.9613
телі	-10.9617
рії	-10.9617
0000	-10.9619
▁професіонал	-10.9623
▁плями	-10.9623
сор	-10.9623
іться	-10.9625
▁криптовалюта	-10.9625
▁видобутку	-10.9627
▁малюнок	-10.9627
▁обставин	-10.9627
▁стерео	-10.9627
▁хвилі	-10.9627
▁преміум	-10.9627
▁торговельн	-10.9627
▁обробляти	-10.9628
▁встанов	-10.9628
▁закінчується	-10.9628
▁Core	-10.9628
(20	-10.9629
▁радості	-10.9629
▁резервного	-10.963
▁столі	-10.963
▁намір	-10.9631
▁геї	-10.9631
▁розм	-10.9631
▁прибуття	-10.9632
▁Long	-10.9632
▁фунт	-10.9632
стрі	-10.9632
▁Реальн	-10.9633
▁76	-10.9634
php	-10.9635
риб	-10.9635
▁білка	-10.9635
кошики	-10.9637
ЕННЯ	-10.9639
▁перелік	-10.9645
▁тестов	-10.9648
▁трекера	-10.9649
▁закрити	-10.9653
▁UK	-10.9653
▁уникати	-10.9653
▁Субота	-10.9653
мисл	-10.9654
▁96	-10.9656
▁прокаті	-10.9656
ливість	-10.9657
▁Guy	-10.9657
▁’	-10.9662
▁соус	-10.9667
▁докладн	-10.9669
▁показники	-10.9671
▁громадськ	-10.9673
▁Has	-10.9674
▁PAR	-10.9677
▁сонячн	-10.9679
▁Finders	-10.9679
▁Пурпурн	-10.9679
▁Індонезійська	-10.9679
▁мікрохвильов	-10.9679
▁Ab	-10.968
▁наступним	-10.9681
▁th	-10.9681
▁Бол	-10.9682
▁Найкраще	-10.9682
ІЇ	-10.9682
5.1	-10.9683
▁імпорт	-10.9684
▁проведе	-10.9684
▁олія	-10.9685
▁(112	-10.9686
трат	-10.9686
▁уявлення	-10.9687
▁Gra	-10.9688
240	-10.969
▁Uni	-10.9694
▁Мода	-10.9695
▁ворогів	-10.9696
таль	-10.9698
▁мотив	-10.9704
▁Приниження	-10.9706
▁Чоловічі	-10.9706
▁ідеальне	-10.9706
▁Організація	-10.9706
▁відключити	-10.9706
▁виділен	-10.9706
▁зверху	-10.9706
▁індикатор	-10.9706
▁батько	-10.9707
▁Літо	-10.9708
▁середньої	-10.9709
itch	-10.971
ліг	-10.971
▁реклама	-10.9711
▁розгляд	-10.9711
▁улюблені	-10.9711
альної	-10.9712
350	-10.9712
tre	-10.9713
Ї	-10.9714
ert	-10.9716
▁сталося	-10.9716
▁посуд	-10.9719
денний	-10.972
▁Excel	-10.9723
файл	-10.9725
▁(53	-10.9726
▁дорога	-10.9726
ляції	-10.9727
▁політику	-10.9727
▁групу	-10.9729
еві	-10.9732
вич	-10.9732
▁Restaurant	-10.9732
▁обговорити	-10.9732
▁редагувати	-10.9732
▁внесок	-10.9732
▁ПІД	-10.9732
▁організувати	-10.9732
▁Магазин	-10.9733
▁руці	-10.9734
▁чудова	-10.9734
▁належним	-10.9735
▁їзда	-10.9736
▁мапа	-10.9736
▁зверніться	-10.9736
нас	-10.9736
▁виступ	-10.9737
▁етикетки	-10.974
єднує	-10.9741
мут	-10.9742
▁Фетиш	-10.9743
▁символів	-10.9743
▁RT	-10.9744
Росія	-10.9745
▁великими	-10.9746
▁спирт	-10.9747
TT	-10.9749
▁газов	-10.9751
▁Sc	-10.9751
▁(106	-10.9752
▁кал	-10.9753
▁Кухня	-10.9754
▁збільшує	-10.9756
▁хакер	-10.9757
130	-10.9758
под	-10.9758
▁змушує	-10.9759
▁ціпонька	-10.9759
▁Азіатки	-10.9759
▁суботу	-10.9759
▁Знайдіть	-10.9759
▁Гарячі	-10.9759
▁ємність	-10.9759
▁суми	-10.9759
view	-10.9762
▁(55	-10.9762
/2	-10.9763
oy	-10.9765
▁рідкісн	-10.9765
▁горіх	-10.9766
▁рукавами	-10.9767
сив	-10.9768
3.3	-10.9769
▁Різ	-10.9776
▁СП	-10.9777
▁відзначити	-10.9777
нет	-10.978
▁марш	-10.9781
▁погод	-10.9782
овому	-10.9784
▁Ліцензія	-10.9785
▁Оранжев	-10.9785
▁пляшка	-10.9785
▁різниця	-10.9786
▁брюк	-10.9786
▁курсі	-10.9786
▁спостеріг	-10.9786
▁Тема	-10.9789
▁Photo	-10.9791
1.5	-10.9791
▁надійні	-10.9792
▁Бренд	-10.9792
пед	-10.9793
▁дотримання	-10.9793
back	-10.9795
tal	-10.9797
▁АПК	-10.9799
▁Коста	-10.9801
язано	-10.9801
▁PRO	-10.9802
ings	-10.9804
▁моменти	-10.9804
гла	-10.9804
▁(45	-10.9807
125	-10.9808
▁пропозицій	-10.9812
▁ідентифікатор	-10.9812
▁сендвіч	-10.9812
▁безпечним	-10.9812
▁четвер	-10.9813
▁UTC	-10.9814
▁Store	-10.9814
ічне	-10.9816
▁III	-10.9817
кло	-10.982
▁службу	-10.9822
▁міститься	-10.9824
▁Fr	-10.9825
rm	-10.9827
▁пульта	-10.9828
▁Сонячн	-10.9829
lock	-10.9829
tica	-10.983
▁DS	-10.983
ical	-10.9832
ye	-10.9832
▁IN	-10.9833
▁Корея	-10.9834
▁вклад	-10.9835
par	-10.9838
▁кільця	-10.9839
▁повноцінн	-10.9839
▁фабрики	-10.9839
▁Партнерська	-10.9839
hotels	-10.984
ora	-10.984
▁какао	-10.9841
▁овоч	-10.9841
▁плеєр	-10.9842
▁сенсорний	-10.9843
▁Природні	-10.9846
казан	-10.985
BE	-10.9851
▁спробував	-10.9855
▁or	-10.9857
▁МП	-10.9858
vis	-10.9864
▁Аматорське	-10.9865
▁андроїд	-10.9865
▁належать	-10.9865
▁Palace	-10.9865
▁фіолетовий	-10.9866
Прихована	-10.9866
▁здатний	-10.9866
▁дешевше	-10.9867
▁AR	-10.9868
bon	-10.987
▁Mor	-10.9871
▁антена	-10.9874
▁трек	-10.9876
решт	-10.9877
ky	-10.9877
▁зайняти	-10.9878
БУ	-10.9878
▁активів	-10.9879
▁зайнят	-10.9879
кольоровий	-10.9879
▁фермент	-10.988
▁240	-10.9881
рівня	-10.9883
▁насичен	-10.9885
▁терміну	-10.9885
▁розваг	-10.989
▁провінція	-10.9892
▁стосуються	-10.9892
▁стоїть	-10.9892
▁відносяться	-10.9892
nbsp	-10.9892
▁Клієнт	-10.9894
ev	-10.9894
▁наступне	-10.9896
▁RO	-10.9898
лек	-10.9899
▁кістки	-10.9899
▁заявку	-10.9899
▁Лікарня	-10.99
▁Ча	-10.9901
-07	-10.9901
▁експорту	-10.9904
▁етапі	-10.9904
пур	-10.9907
браузер	-10.9908
тобто	-10.9908
скі	-10.9908
▁вечірки	-10.9911
▁AD	-10.9912
▁зростає	-10.9914
нур	-10.9915
▁зняти	-10.9916
▁Ідеї	-10.9919
▁сітка	-10.992
▁пише	-10.992
▁понеділок	-10.992
▁пиво	-10.992
▁тренд	-10.9922
▁регіональн	-10.9923
чай	-10.9925
▁покращує	-10.9925
ВИ	-10.9926
▁корали	-10.9927
льна	-10.9927
▁організован	-10.9929
▁ta	-10.9931
ичний	-10.9934
Xxx	-10.9935
ята	-10.9938
кладення	-10.9942
126	-10.9945
▁каналами	-10.9946
▁багатьма	-10.9946
▁регулярні	-10.9946
▁Вінстрол	-10.9946
▁рідин	-10.9946
▁GLONASS	-10.9947
▁пас	-10.9947
▁ліцензії	-10.9948
▁залишаються	-10.9949
фікс	-10.9951
▁виграв	-10.9951
▁вільного	-10.9953
▁Ван	-10.9953
віз	-10.9954
функціональний	-10.9956
ріг	-10.9957
дь	-10.9958
▁mp	-10.996
▁Нідерланди	-10.9962
▁душі	-10.9963
ставка	-10.9964
▁(117	-10.9964
▁ад	-10.9966
ським	-10.9967
▁Sl	-10.9967
▁еротичний	-10.9967
▁Стар	-10.9969
▁Sm	-10.997
▁Sal	-10.9971
▁пацієнта	-10.9971
▁Швеція	-10.9973
▁сучасний	-10.9973
корист	-10.9974
▁скачав	-10.9974
▁хлор	-10.9975
▁нерв	-10.9976
нню	-10.9979
▁Одним	-10.9982
▁вступ	-10.9982
▁платежів	-10.9983
ico	-10.9984
▁дроту	-10.9987
▁друкован	-10.999
ой	-10.9991
хостинг	-10.9991
▁un	-10.9992
тримати	-10.9992
иш	-10.9994
▁призначена	-10.9996
▁West	-10.9996
▁краю	-10.9997
НУ	-10.9999
▁Й	-11
▁вишивка	-11.0001
▁вказати	-11.0001
▁Ден	-11.0001
▁створена	-11.0001
▁Їжа	-11.0001
UI	-11.0001
▁справді	-11.0002
▁Зберегти	-11.0006
глин	-11.0007
▁Найкращі	-11.0009
▁платформ	-11.0009
lee	-11.0009
▁VIP	-11.0015
lot	-11.0016
tar	-11.0016
▁алюмінієв	-11.002
-2018	-11.002
▁Низький	-11.0022
▁Казахстан	-11.0022
RP	-11.0023
▁мами	-11.0026
жень	-11.0027
Ко	-11.0028
▁Зображень	-11.0028
▁Приєднуйтесь	-11.0028
▁короткі	-11.0028
▁відпочити	-11.0028
▁шланг	-11.0028
СУ	-11.0028
▁гілки	-11.0028
рахувати	-11.0028
▁створюють	-11.0028
▁спальні	-11.003
OC	-11.0032
▁GBP	-11.0033
▁бас	-11.0037
▁Марка	-11.0037
▁місцеві	-11.0039
▁Другий	-11.004
▁н	-11.004
▁розрив	-11.0041
▁RSS	-11.0043
▁повної	-11.0043
WA	-11.0045
▁Колишн	-11.0046
4%	-11.0047
овує	-11.0049
▁маленька	-11.005
▁натиск	-11.0052
▁Подвійний	-11.0054
▁мультфільм	-11.0055
▁певний	-11.0055
▁консультант	-11.0055
▁впевнений	-11.0055
▁знизити	-11.0055
▁хак	-11.0055
▁Плаття	-11.0056
▁мережею	-11.0056
гур	-11.0056
▁середньому	-11.0056
▁лот	-11.0056
▁підлітка	-11.0057
▁пред	-11.0057
▁Main	-11.006
▁мірі	-11.0062
даємо	-11.0062
ОС	-11.0064
ku	-11.0066
hr	-11.0066
▁справедлив	-11.0067
▁вести	-11.0068
▁графіки	-11.007
ерб	-11.0071
AF	-11.0072
▁SS	-11.0073
eek	-11.0074
▁:)	-11.0074
Авторськ	-11.0074
▁Сінгапур	-11.0074
DM	-11.0076
▁національний	-11.0077
ws	-11.0078
юється	-11.0078
▁380	-11.0081
опа	-11.0082
▁(90	-11.0082
▁колекції	-11.0082
▁навичок	-11.0083
▁оптимізації	-11.0083
▁Відповідь	-11.0084
▁шуму	-11.0084
▁театр	-11.0085
єднані	-11.0087
soft	-11.0089
▁уважно	-11.009
▁створені	-11.009
▁покупців	-11.0094
▁Xxx	-11.0095
▁Кріс	-11.0095
скільки	-11.0102
▁витяг	-11.0103
▁.;	-11.0103
bol	-11.0104
менш	-11.0105
▁шини	-11.0107
cor	-11.0107
люв	-11.0109
тай	-11.011
▁Велосипед	-11.011
▁Тенеріфе	-11.011
▁навпаки	-11.011
▁Джеймс	-11.011
ich	-11.0111
▁пучка	-11.0111
▁електронний	-11.0112
▁штук	-11.0116
▁компресор	-11.0116
▁апетит	-11.0119
▁абонентів	-11.0119
вій	-11.0122
LD	-11.0125
▁нагрів	-11.0125
кового	-11.0128
вантажу	-11.013
dd	-11.013
цвіт	-11.013
▁Завод	-11.013
упи	-11.0133
▁2003	-11.0135
▁польоту	-11.0138
▁дзвінки	-11.0138
▁тривалого	-11.0138
▁користуються	-11.0138
▁Тайська	-11.0139
▁ска	-11.0139
▁are	-11.014
▁кожні	-11.0143
med	-11.0143
▁європейський	-11.0143
гру	-11.0143
▁цифровий	-11.0143
▁Незалежно	-11.0146
▁Ков	-11.0146
▁Love	-11.0147
▁Боб	-11.0147
▁плавання	-11.0147
fu	-11.0148
▁Флорида	-11.0148
▁передавати	-11.0148
▁жовті	-11.015
▁хвилину	-11.0152
мл	-11.0155
▁Babys	-11.0156
▁ферм	-11.0159
AA	-11.0159
▁форматів	-11.0165
▁Пуерто	-11.0165
▁дозволу	-11.0165
▁Біткін	-11.0165
▁психічн	-11.0165
▁Корисн	-11.0166
▁вибух	-11.0166
▁французька	-11.0166
лют	-11.0169
▁маленькі	-11.0171
▁Test	-11.0172
gmail	-11.0172
▁вважає	-11.0174
▁подібно	-11.0176
▁споживачів	-11.0176
▁наявний	-11.0177
▁взяв	-11.0178
▁Всім	-11.018
трап	-11.018
джа	-11.018
дано	-11.018
▁Av	-11.0181
▁мам	-11.0182
Com	-11.0185
ництва	-11.0186
▁захищен	-11.0188
язов	-11.019
▁Пат	-11.0191
▁ДОМІНІКА	-11.0193
▁Наявність	-11.0193
▁Спіймана	-11.0193
▁домашнього	-11.0193
▁Згідно	-11.0193
▁корисний	-11.0193
▁Том	-11.0194
цький	-11.0194
▁побутов	-11.0195
▁автора	-11.0195
▁придатн	-11.0195
окс	-11.0197
▁продати	-11.0198
▁BQ	-11.0199
▁схема	-11.0199
▁плит	-11.0203
▁переказ	-11.0205
117	-11.0208
▁Кос	-11.0211
▁насоса	-11.0213
▁супутнику	-11.0214
лоп	-11.0218
вес	-11.0219
▁Зустріч	-11.0221
▁Продукція	-11.0221
▁Доступні	-11.0221
▁екрана	-11.0221
▁аматорське	-11.0221
▁бікіні	-11.0221
▁створили	-11.0221
ville	-11.0222
0.3	-11.0222
▁Under	-11.0222
нести	-11.0223
its	-11.0224
▁судов	-11.0226
▁дія	-11.0227
▁ДЕ	-11.0228
▁постав	-11.023
▁Бісексуал	-11.0231
▁Країни	-11.0231
▁ІН	-11.0231
▁Електричні	-11.0232
key	-11.0234
▁сторінках	-11.0235
▁Cal	-11.0236
▁Кен	-11.0237
▁УФ	-11.0238
▁захисник	-11.0242
гіт	-11.0242
oz	-11.0244
103	-11.0245
▁Fi	-11.0246
▁77	-11.0247
ser	-11.0247
▁Інтерв	-11.0248
Ukranian	-11.0248
▁прямий	-11.0248
▁акт	-11.0249
очок	-11.025
▁істот	-11.0252
▁розміщена	-11.0253
▁електричні	-11.0254
чним	-11.0254
▁справжній	-11.0255
▁балів	-11.0257
▁цифрових	-11.0257
▁30-	-11.0258
▁дис	-11.0259
▁Comp	-11.0259
дач	-11.026
ute	-11.0261
▁подорожувати	-11.0262
▁Товари	-11.0268
OM	-11.027
сар	-11.0271
▁руках	-11.0272
дачу	-11.0276
бон	-11.0276
▁центри	-11.0276
▁Ідеальна	-11.0276
▁Ввійти	-11.0276
▁Рівень	-11.0277
▁1/2	-11.0277
▁відмінним	-11.0278
▁старіння	-11.0279
адреса	-11.0279
образ	-11.028
▁прем	-11.0281
rn	-11.0284
▁Точка	-11.0284
▁міжнародна	-11.0285
▁громад	-11.0285
▁життєв	-11.0288
▁Гб	-11.0289
-25	-11.0294
▁Ju	-11.0295
▁Ем	-11.0296
ck	-11.0296
▁2,5	-11.0298
▁AT	-11.0298
▁Джерело	-11.03
▁Видалити	-11.0301
▁масов	-11.0303
▁свічки	-11.0304
▁Брюссель	-11.0304
▁технічного	-11.0304
▁OnePlus	-11.0305
▁вказану	-11.0305
▁чек	-11.0305
▁стадії	-11.0305
▁Hat	-11.0306
▁(60	-11.0307
▁Cloud	-11.0307
▁дешев	-11.0307
▁красуня	-11.0308
▁Real	-11.0308
ютор	-11.031
▁залишає	-11.031
▁літній	-11.0312
▁милі	-11.0312
▁худ	-11.0313
▁видно	-11.0313
▁динамік	-11.0315
▁північн	-11.0315
ола	-11.0315
▁(43	-11.0316
ness	-11.0316
(23	-11.0317
Пере	-11.0318
264	-11.0318
▁Матеріали	-11.0318
тін	-11.0319
дом	-11.0319
▁керівництвом	-11.0319
▁ліхтарі	-11.0322
4.2	-11.0325
berg	-11.0325
▁рішенням	-11.0326
мікс	-11.0327
▁конус	-11.0327
вань	-11.0331
▁темп	-11.0331
▁керівництва	-11.0332
▁навігації	-11.0332
▁порошку	-11.0332
▁сильний	-11.0333
▁шлюб	-11.0334
▁Ваза	-11.0334
▁водій	-11.0334
▁активно	-11.0334
▁змінюється	-11.0336
▁Рада	-11.0337
-02	-11.0337
ION	-11.0339
▁доза	-11.0339
янка	-11.0341
pcs	-11.0345
▁сервері	-11.0347
GO	-11.0352
▁заповнити	-11.0354
▁(11)	-11.0355
раб	-11.0356
▁відновлен	-11.0358
▁Kar	-11.0359
▁регіону	-11.0359
▁реліз	-11.036
▁паперов	-11.0361
▁Radio	-11.0361
pr	-11.0362
▁Малини	-11.0363
▁гід	-11.0365
▁танцю	-11.0367
▁Slot	-11.0369
▁рота	-11.037
▁Тан	-11.0371
▁170	-11.0373
▁Мексика	-11.0373
FC	-11.0374
▁виплати	-11.0374
OK	-11.0374
▁фруктів	-11.0376
▁Dar	-11.0379
▁вмістом	-11.0379
кажіть	-11.0379
▁ланцюг	-11.0382
▁ракет	-11.0389
▁cFos	-11.0389
▁Покращ	-11.0389
▁Азіатський	-11.0389
▁Продовжуючи	-11.0389
▁безкоштовне	-11.0389
▁палицю	-11.0389
▁спеціалізується	-11.0389
Deutsch	-11.0389
▁торгові	-11.0389
▁Інший	-11.039
▁оголошень	-11.0391
▁опції	-11.0391
▁поверхню	-11.0391
▁Перша	-11.0391
▁Почніть	-11.0392
▁{	-11.0396
ани	-11.0396
Створіть	-11.0399
ВК	-11.04
лива	-11.0403
▁Mega	-11.0408
бук	-11.0408
▁популярним	-11.0408
▁публічн	-11.0409
▁килим	-11.0409
поч	-11.0411
роби	-11.0412
!!	-11.0412
▁широк	-11.0412
▁містити	-11.0412
▁RE	-11.0414
▁активувати	-11.0415
подібним	-11.0416
▁OpenShot	-11.0417
▁OverThumbs	-11.0417
▁Підготовка	-11.0417
▁манікюр	-11.0417
▁розглянемо	-11.0417
▁інвестиції	-11.0417
▁Марокко	-11.0417
▁кругл	-11.0417
▁Dianabol	-11.0417
▁Працює	-11.0417
▁плям	-11.0422
▁1-2	-11.0424
полі	-11.0425
▁Pr	-11.0427
MT	-11.0427
▁діяти	-11.0428
▁68	-11.0428
win	-11.0428
вай	-11.043
2"	-11.043
▁картка	-11.0431
дані	-11.0431
▁Гр	-11.0431
▁актуальним	-11.0435
▁спортсменів	-11.0437
part	-11.0438
UM	-11.0438
▁0.5	-11.044
ходу	-11.0442
▁перевірен	-11.0442
▁заїзду	-11.0445
▁Ph	-11.0445
▁нехай	-11.0445
МИ	-11.0445
гул	-11.0445
▁Ізраїль	-11.0446
▁боротьба	-11.0446
▁сказали	-11.0446
▁основи	-11.0446
▁Nu	-11.0446
▁місцевості	-11.0447
вшись	-11.0447
язниця	-11.0447
▁тобі	-11.0448
▁коричневий	-11.0451
▁Чу	-11.0452
▁pre	-11.0452
▁FMUSER	-11.0455
▁перешкод	-11.0457
▁Хай	-11.0459
▁офіційний	-11.046
!!!	-11.0462
ось	-11.0462
гнут	-11.0464
▁Центральн	-11.0466
▁додано	-11.0469
▁спільно	-11.047
▁87	-11.047
▁Коротк	-11.0471
▁досконал	-11.0473
▁Сум	-11.0473
відношенню	-11.0474
▁мабуть	-11.0474
▁щільн	-11.0475
▁Office	-11.0475
▁стріляти	-11.0476
▁дотик	-11.0476
▁купуєте	-11.0476
tan	-11.0477
яж	-11.0478
▁низькі	-11.0478
▁повільно	-11.0478
▁блондинки	-11.048
▁постріл	-11.0484
даний	-11.0485
rom	-11.0486
▁найпопулярніших	-11.0487
СО	-11.0488
▁стійкість	-11.0491
пп	-11.0491
▁дюйма	-11.0493
▁Модні	-11.0493
▁реєстр	-11.0495
ood	-11.0495
▁формати	-11.0498
▁пакета	-11.0498
0.2	-11.0499
▁водонепроникний	-11.0501
▁останнім	-11.0501
haosan	-11.0503
▁ступеня	-11.0503
▁провідн	-11.0503
▁захисн	-11.0504
▁навчитися	-11.0506
▁SEO	-11.0506
структур	-11.0507
uri	-11.0507
cer	-11.0509
КР	-11.0511
ane	-11.0511
()	-11.0514
уляр	-11.0518
▁Key	-11.0519
ведений	-11.0521
▁державн	-11.0521
▁пунктах	-11.0522
▁схоже	-11.0523
▁підтримують	-11.0525
▁відправлен	-11.0527
▁сумнів	-11.0527
▁61	-11.0527
▁Куп	-11.0529
▁кемпінг	-11.0531
▁тренувань	-11.0531
▁Ультразвукова	-11.0532
▁палац	-11.0532
▁Піца	-11.0533
▁миттєво	-11.0534
▁Біо	-11.0534
pot	-11.0534
▁переміщ	-11.0535
▁Перевірка	-11.0537
▁тер	-11.0538
ise	-11.0538
▁клінічн	-11.0538
▁фільму	-11.054
▁Sand	-11.0542
▁звір	-11.0543
▁Мал	-11.0543
▁напряму	-11.0545
▁командою	-11.0547
▁вашою	-11.0548
▁проходять	-11.0548
▁президент	-11.055
▁Expo	-11.0551
-60	-11.0551
fuck	-11.0551
▁надто	-11.0551
ДУ	-11.0551
NO	-11.0552
▁харчової	-11.0553
Кр	-11.0553
ila	-11.0554
▁платформі	-11.0554
▁Com	-11.0556
сип	-11.0558
▁Pay	-11.0558
▁щасливі	-11.056
▁сприяти	-11.056
довж	-11.056
▁фіксован	-11.0562
▁прибирання	-11.0563
▁заборонено	-11.0563
▁ro	-11.0565
▁пасажирськ	-11.0565
▁корпусу	-11.0567
▁красу	-11.0568
▁Ше	-11.0569
▁термо	-11.0569
▁зареєстрован	-11.057
▁південн	-11.057
▁Метал	-11.057
▁Мер	-11.057
▁мат	-11.0571
uz	-11.0572
радіо	-11.0572
mit	-11.0573
▁Te	-11.058
Використовується	-11.0583
▁популярний	-11.0585
▁оснащений	-11.0586
gs	-11.0589
▁фактор	-11.0589
▁Adobe	-11.0589
▁Дідусь	-11.0589
▁тенденції	-11.0589
▁Motorola	-11.0589
▁бачення	-11.0589
цер	-11.0591
Tube	-11.0591
▁зоною	-11.0592
▁Збірка	-11.0595
джер	-11.0595
▁поромних	-11.0599
▁Курортн	-11.06
▁Віт	-11.06
▁зупинитися	-11.0601
DS	-11.0603
▁Гран	-11.0603
2013	-11.0604
▁масив	-11.0605
▁лав	-11.0605
▁ігрові	-11.0605
юча	-11.0606
станови	-11.0606
ПР	-11.0607
▁цифри	-11.0609
▁платформу	-11.0609
▁Відповідно	-11.061
▁ЦЕ	-11.061
▁15%	-11.0613
▁розлад	-11.0614
▁Int	-11.0615
▁мотор	-11.0615
▁буває	-11.0617
▁блозі	-11.0618
▁приватний	-11.0618
▁списки	-11.0618
▁Меблі	-11.0618
▁копії	-11.0618
▁ліфт	-11.0618
▁роси	-11.0621
▁квіт	-11.0621
▁ніякого	-11.0624
▁нігтів	-11.0625
▁ретро	-11.0625
▁сімей	-11.0627
▁залози	-11.0629
кос	-11.0629
▁монтаж	-11.063
▁багаж	-11.0631
гро	-11.0631
▁Ген	-11.0631
115	-11.0634
між	-11.0635
«	-11.0636
ОЇ	-11.0637
▁промислові	-11.0641
▁регіоні	-11.0642
▁конференц	-11.0644
▁Сімейні	-11.0647
▁усередині	-11.0647
▁лікуванні	-11.0647
▁доставкою	-11.0647
▁телеканалів	-11.0648
ont	-11.0648
▁виходять	-11.0649
▁відмінності	-11.065
▁виграш	-11.065
олон	-11.0651
0°	-11.0654
▁Запуск	-11.0657
▁скрипт	-11.0657
▁фармацевтичн	-11.0657
▁Іван	-11.0658
▁маса	-11.066
года	-11.0661
берг	-11.0661
▁От	-11.0663
ны	-11.0663
▁аксесуарів	-11.0663
▁багажу	-11.0664
▁NO	-11.0664
▁Дитячий	-11.0667
▁пункти	-11.0667
▁сорт	-11.0669
▁гарна	-11.0672
4]	-11.0674
▁IS	-11.0676
▁батарея	-11.0676
▁гарбуз	-11.0676
▁головоломки	-11.0676
▁специфікації	-11.0676
▁зрілий	-11.0676
▁Тіло	-11.0677
▁медичного	-11.0677
▁дилер	-11.0678
Лі	-11.0678
▁запропонован	-11.0679
▁волі	-11.0679
▁фабрика	-11.068
льд	-11.0681
▁чудовим	-11.0682
▁використовую	-11.0683
лев	-11.0685
дук	-11.0686
КІ	-11.069
▁By	-11.0693
ax	-11.0694
▁МИ	-11.0694
▁Кал	-11.0694
ound	-11.0698
▁виявлен	-11.0699
▁помічник	-11.0699
▁угод	-11.07
нич	-11.0701
▁пожеж	-11.0702
▁Колготки	-11.0702
▁Південно	-11.0704
▁симфонія	-11.0705
▁Монако	-11.0705
▁дякую	-11.0705
▁Вітамін	-11.0705
▁alexis	-11.0706
▁Ремонт	-11.0706
▁View	-11.0707
запис	-11.0707
▁бажаєте	-11.0709
душ	-11.071
▁меж	-11.071
ВО	-11.0711
водиться	-11.0713
▁/0	-11.0716
▁Такий	-11.0716
▁ке	-11.0723
піл	-11.0723
App	-11.0725
▁оренди	-11.073
▁розвивати	-11.0731
рас	-11.0733
▁настрій	-11.0737
▁перейдіть	-11.0738
▁металев	-11.0739
єтеся	-11.074
▁Темно	-11.0741
fl	-11.0741
▁67	-11.0745
тримання	-11.0747
▁Мадрид	-11.0747
▁пробн	-11.0749
▁Vid	-11.0752
ограф	-11.0754
▁активних	-11.0754
тати	-11.0755
▁передній	-11.0756
дес	-11.076
GL	-11.0761
ВІ	-11.0762
don	-11.0762
▁НОВИНИ	-11.0764
▁Смокче	-11.0764
▁Торонто	-11.0764
▁рівнем	-11.0764
▁приватних	-11.0764
▁легким	-11.0764
▁Острів	-11.0764
▁десерт	-11.0764
▁ній	-11.0764
▁відкривається	-11.0767
аючись	-11.0767
сол	-11.0768
▁купона	-11.0768
▁компонента	-11.077
▁Соціальн	-11.0773
▁суцільний	-11.0773
Роз	-11.0774
▁годування	-11.0775
pol	-11.0776
▁ПУ	-11.0781
HS	-11.0783
▁Домашні	-11.0783
▁ставка	-11.0787
▁Кастинг	-11.0788
сов	-11.079
pu	-11.0791
▁Таблиця	-11.0793
▁страждає	-11.0793
▁червень	-11.0794
ette	-11.0794
ТУ	-11.0795
▁покращити	-11.0795
▁якою	-11.0796
▁750	-11.0796
VR	-11.0796
▁збільшен	-11.08
▁тримає	-11.08
▁рука	-11.0802
ae	-11.0803
сса	-11.0803
▁94	-11.0804
▁знайомств	-11.0805
▁працівник	-11.0808
▁92	-11.081
▁симптомів	-11.0813
▁управляє	-11.0813
▁повторно	-11.0814
▁виробляє	-11.0815
(25	-11.0815
▁власник	-11.0816
▁залізничн	-11.0817
▁шанси	-11.0818
▁Важлив	-11.0818
▁відповідальн	-11.082
ЕТ	-11.082
одно	-11.0821
▁Покупки	-11.0822
▁Розташован	-11.0822
▁переробки	-11.0823
▁Замість	-11.0823
▁збираєтеся	-11.0823
▁Білорусь	-11.0823
▁Канади	-11.0823
▁конференції	-11.0823
▁рукави	-11.0823
▁лікувальн	-11.0824
▁Anti	-11.0825
▁особисто	-11.0826
▁туди	-11.0827
кре	-11.0828
▁комір	-11.0829
тек	-11.0831
▁фар	-11.0831
ИХ	-11.0833
some	-11.0834
▁завершити	-11.0834
оги	-11.0838
▁5)	-11.0839
▁труба	-11.084
чної	-11.084
▁Sol	-11.0841
▁міс	-11.0841
стві	-11.0841
▁збірки	-11.0842
-14	-11.0844
UK	-11.085
▁курсами	-11.085
▁гардероб	-11.0852
sky	-11.0853
▁передати	-11.0854
ТРИ	-11.0855
▁руку	-11.0855
GMT	-11.0856
▁PA	-11.0858
▁Медіа	-11.0859
губ	-11.086
▁грам	-11.0861
▁привід	-11.0863
оре	-11.0864
▁Fun	-11.0865
▁лук	-11.0867
шими	-11.0869
ясувати	-11.087
бай	-11.087
єва	-11.0874
▁їсти	-11.0875
▁зону	-11.0877
▁осі	-11.0879
▁гумов	-11.088
▁Zo	-11.0882
▁Боротьба	-11.0882
▁підсумку	-11.0882
▁потрібний	-11.0882
▁Державн	-11.0882
▁прийти	-11.0882
▁жіночий	-11.0882
▁Форекс	-11.0882
▁вигоди	-11.0883
▁Режим	-11.0883
4,5	-11.0884
▁Головний	-11.0884
▁присутні	-11.0884
▁винограду	-11.0887
▁сонце	-11.0888
вад	-11.0889
tes	-11.089
▁яблуко	-11.089
▁Inter	-11.0891
▁футболу	-11.0892
▁найбільше	-11.0895
▁Рай	-11.0897
▁користувачами	-11.0897
stro	-11.0898
▁шаблонів	-11.09
▁доросл	-11.0901
ютерів	-11.0903
▁(70	-11.0904
▁знав	-11.0905
IX	-11.0905
кен	-11.0906
▁очікуван	-11.0908
»:	-11.0909
tfield	-11.091
▁Tu	-11.091
▁Діаметр	-11.0912
▁вибрали	-11.0912
▁неділю	-11.0912
2012	-11.0912
▁посилань	-11.0913
▁поточного	-11.0913
▁називаємо	-11.0913
еро	-11.0913
▁Золота	-11.0914
ken	-11.0915
work	-11.0916
▁Важк	-11.0917
▁капітал	-11.0918
▁імена	-11.092
270	-11.092
чник	-11.0922
▁am	-11.0924
▁набору	-11.093
▁дизайнер	-11.0932
▁Vol	-11.0932
▁Дорослі	-11.0933
▁видатн	-11.0935
ao	-11.0935
▁сплаву	-11.0938
▁яскраво	-11.094
▁Чотири	-11.0941
▁аккаунт	-11.0941
▁борошна	-11.0941
▁верхньому	-11.0941
▁ділянці	-11.0941
2020	-11.0941
html	-11.0941
▁недавно	-11.0941
▁Software	-11.0942
▁інтерактивн	-11.0942
▁попит	-11.0942
▁приваблив	-11.0944
▁перемогти	-11.0945
▁офісу	-11.0946
▁Tri	-11.0948
▁Sch	-11.0949
▁діапазоні	-11.095
380	-11.095
▁відмінні	-11.0951
істи	-11.0954
▁фактори	-11.0955
▁запитів	-11.0957
льних	-11.0962
сет	-11.0964
▁безпечні	-11.0964
▁звернути	-11.0965
НОГО	-11.0966
iva	-11.0966
▁Ki	-11.0967
ding	-11.0968
▁забезпечен	-11.0968
▁Che	-11.097
lea	-11.097
host	-11.0971
▁Сертифікація	-11.0971
▁білизна	-11.0971
▁устаткування	-11.0971
▁приємний	-11.0971
ріб	-11.0972
▁отже	-11.0973
▁витончен	-11.0973
▁сотні	-11.0973
▁Доктор	-11.0977
▁Найкраща	-11.098
▁відправляти	-11.098
3"	-11.098
▁ванних	-11.098
▁науково	-11.0981
6"	-11.0982
1.2	-11.0982
pri	-11.0982
▁Адже	-11.0984
NI	-11.0987
▁просте	-11.0987
▁співробітник	-11.0988
▁комунікаційн	-11.0992
▁Британськ	-11.0995
iff	-11.0997
▁широке	-11.0997
▁(54	-11.1
▁дитячі	-11.1001
▁весільн	-11.1001
▁мислення	-11.1001
▁знадобиться	-11.1002
lly	-11.1002
▁поверне	-11.1002
бла	-11.1003
▁Two	-11.1005
▁минул	-11.1005
▁внутрішнього	-11.1006
rc	-11.1006
nn	-11.1008
▁Cristian	-11.1009
▁Біль	-11.1009
робив	-11.101
▁Вал	-11.101
▁пластин	-11.1011
bin	-11.1012
червоний	-11.1012
▁розміщені	-11.1013
▁експерти	-11.1013
дала	-11.1014
omi	-11.1015
▁газет	-11.1016
бору	-11.1017
▁перець	-11.1017
коль	-11.102
▁внутрішньо	-11.102
▁Хе	-11.1021
▁знаки	-11.1022
▁спеціалізован	-11.1023
▁vi	-11.1024
міл	-11.1025
▁my	-11.1026
кала	-11.1027
ходів	-11.1027
▁Мої	-11.1027
арк	-11.1028
ську	-11.1031
▁Америці	-11.1031
▁коефіцієнт	-11.1031
▁майбутнього	-11.1031
▁швидке	-11.1031
▁враховувати	-11.1031
▁латина	-11.1032
▁Перевірити	-11.1033
▁Невеликий	-11.1034
▁літр	-11.1035
▁смарт	-11.1035
ail	-11.1036
▁Bay	-11.1036
▁якийсь	-11.1036
▁Best	-11.1037
▁this	-11.1037
▁книгу	-11.1039
▁Леді	-11.1039
▁мрії	-11.104
▁внутрішніх	-11.104
▁постійн	-11.104
▁найближчим	-11.1041
▁Жорстк	-11.1041
Обмін	-11.1044
▁мала	-11.1046
ицею	-11.1048
▁Мікро	-11.1048
▁приклади	-11.1048
PR	-11.105
кам	-11.105
avi	-11.1051
ІР	-11.1054
gram	-11.1054
Мі	-11.1055
▁Пір	-11.1057
▁спонсор	-11.1058
▁Jet	-11.1058
▁спини	-11.1059
▁вівторок	-11.1062
▁Apk	-11.1062
▁покаже	-11.1062
via	-11.1062
▁протилежн	-11.1062
▁AUD	-11.1063
▁реєстру	-11.1066
▁валютами	-11.1066
▁запам	-11.1069
▁кредитної	-11.107
▁персонаж	-11.107
▁Porn	-11.1072
los	-11.1072
▁Pet	-11.1074
ливо	-11.1075
▁спільного	-11.1076
▁Ес	-11.1077
▁рекламн	-11.1079
▁декоративн	-11.1079
9001	-11.1079
▁Оп	-11.1079
▁конверт	-11.1082
▁платежі	-11.1082
▁доходить	-11.1086
ope	-11.1087
▁Кут	-11.1088
ична	-11.1089
pan	-11.109
▁xxx	-11.1091
▁варіантом	-11.1092
▁Додавання	-11.1092
▁одноразов	-11.1092
▁вагою	-11.1092
▁домашні	-11.1093
▁OFF	-11.1093
▁оброблен	-11.1094
▁антени	-11.1096
гин	-11.1097
▁побудований	-11.1097
▁міжнародні	-11.1099
лит	-11.1104
правити	-11.1104
стон	-11.1105
▁браузері	-11.1105
DR	-11.1107
630	-11.1109
шку	-11.111
▁морськ	-11.1113
▁ТЕ	-11.1113
тою	-11.1114
▁вин	-11.1117
▁Гот	-11.1118
dom	-11.1118
▁екологічн	-11.1118
ваг	-11.112
▁Інститут	-11.1122
▁Гвоздики	-11.1122
▁ОТКР	-11.1122
▁Обидва	-11.1122
▁Товщина	-11.1122
▁дізнатись	-11.1122
▁скасувати	-11.1122
▁факультет	-11.1122
▁Hostel	-11.1122
▁думав	-11.1122
▁Оргія	-11.1123
▁ночі	-11.1124
▁когось	-11.1126
▁шп	-11.1126
▁АБО	-11.1127
▁Бути	-11.1127
▁зимов	-11.1128
▁фірми	-11.1128
▁дизайнерськ	-11.1129
▁фантастичн	-11.1132
▁молодих	-11.1133
канал	-11.1135
▁CH	-11.1137
▁зворотний	-11.1138
аст	-11.114
▁альтернатив	-11.1141
▁ходити	-11.1142
бек	-11.1142
инки	-11.1143
унт	-11.1144
▁природних	-11.1144
▁передача	-11.1146
gra	-11.1147
▁мир	-11.115
▁тематичн	-11.115
▁doc	-11.1151
▁обстеження	-11.1153
▁поведінку	-11.1153
▁проходження	-11.1153
▁віщає	-11.1153
▁САЙТУ	-11.1153
▁аркуш	-11.1153
▁Альбом	-11.1153
▁Pornhub	-11.1153
▁тривалий	-11.1154
▁RC	-11.1154
128	-11.1155
▁фінансування	-11.1157
▁подорожей	-11.1157
▁предметів	-11.1158
▁повідомленнями	-11.116
▁мор	-11.1161
ева	-11.1163
015	-11.1164
пла	-11.1165
реєстр	-11.1167
чених	-11.1168
▁Тепл	-11.117
▁жодного	-11.1171
▁природн	-11.1172
nal	-11.1173
▁Із	-11.1174
▁перегляда	-11.1174
▁82	-11.1175
▁дайте	-11.1175
▁кімнату	-11.1177
нова	-11.1177
▁кролик	-11.1177
▁PCB	-11.1179
▁розробників	-11.1179
▁гал	-11.118
▁лак	-11.118
▁чаю	-11.1183
▁Видалення	-11.1183
▁Дивись	-11.1183
▁смачні	-11.1183
▁заощадьте	-11.1184
▁версій	-11.1184
▁сумісний	-11.1184
▁тонкий	-11.1185
▁виставки	-11.1185
▁напишіть	-11.1185
▁Форум	-11.1185
▁здійснення	-11.1185
▁даному	-11.1187
▁Встановлення	-11.1188
▁любити	-11.1189
▁живе	-11.119
▁pa	-11.119
hen	-11.1191
елла	-11.1193
▁символи	-11.1194
▁Rd	-11.1194
▁спам	-11.1194
жок	-11.1195
for	-11.1196
▁bo	-11.1196
▁розмов	-11.1196
▁захищена	-11.1198
ние	-11.1205
вол	-11.1207
▁Близьк	-11.1208
205	-11.1208
▁практику	-11.1209
рух	-11.121
▁аварій	-11.121
▁ультра	-11.1211
▁Радіо	-11.1212
▁Big	-11.1213
▁Діапазон	-11.1214
▁фахівець	-11.1214
▁Обробка	-11.1214
вала	-11.1214
▁терапія	-11.1215
▁Купання	-11.1216
ятницю	-11.1221
▁Закладка	-11.1222
▁поп	-11.1223
▁Network	-11.1223
▁запитом	-11.1225
123	-11.1227
▁відчувають	-11.1231
▁пункту	-11.1232
▁(46	-11.1233
▁підприємство	-11.1238
▁світлодіодів	-11.124
more	-11.1241
▁вирішен	-11.1241
▁Ethereum	-11.1245
▁Бабця	-11.1245
▁Бухарест	-11.1245
▁Встановити	-11.1245
▁ложки	-11.1245
▁крихітн	-11.1245
▁Правильн	-11.1245
▁аніме	-11.1245
▁зборів	-11.1246
▁рекомендують	-11.1248
▁відчуваєте	-11.1253
▁портативні	-11.1253
▁стресу	-11.1255
▁послідовн	-11.1256
▁коричнев	-11.1256
▁Fin	-11.1256
АЛ	-11.1256
fit	-11.1256
▁залишитися	-11.1259
▁займе	-11.126
▁меблів	-11.1261
ард	-11.1261
▁Лін	-11.1262
▁клік	-11.1263
чного	-11.1264
▁автоматична	-11.1264
ЕМ	-11.1268
▁хром	-11.1269
▁дивовижні	-11.127
rk	-11.127
Français	-11.1275
andro	-11.1275
▁Бангкок	-11.1276
▁Відключити	-11.1276
▁досягає	-11.1276
▁гарне	-11.1276
▁цілями	-11.1277
▁Запитання	-11.1277
▁скорочення	-11.1278
▁берег	-11.1278
рик	-11.1279
▁заповнення	-11.1279
▁виділення	-11.128
ємося	-11.1281
овик	-11.1282
▁Ефективн	-11.1283
▁фор	-11.1283
баг	-11.1283
▁пасажира	-11.1287
▁паркування	-11.1288
▁пла	-11.1289
▁PE	-11.129
▁цифр	-11.1296
▁стійки	-11.1297
▁GT	-11.1297
▁Can	-11.1298
ello	-11.1301
ink	-11.1304
▁Інтерфейс	-11.1307
▁рупія	-11.1307
▁інструкцій	-11.1307
▁Дублін	-11.1307
▁липень	-11.1307
▁Pol	-11.1308
166	-11.1308
подоб	-11.131
▁перев	-11.131
3]	-11.1311
▁чистої	-11.1311
▁приватні	-11.1311
▁маршрути	-11.1313
▁процедура	-11.1314
леп	-11.1314
крім	-11.1314
▁особистого	-11.1315
▁заробляти	-11.1316
▁ультразвуков	-11.1317
▁Глибоко	-11.1317
бру	-11.1317
▁повним	-11.1318
▁індивідуальні	-11.132
йся	-11.132
нули	-11.132
▁використовував	-11.132
▁кінців	-11.1323
▁Бор	-11.1324
▁115	-11.1324
СЯ	-11.1324
Показати	-11.1324
▁відкриває	-11.1326
▁шрифт	-11.1326
▁Val	-11.1327
▁кава	-11.1327
▁Бре	-11.1328
▁етикет	-11.1329
Ні	-11.133
▁Прості	-11.1333
▁партнером	-11.1334
▁Gen	-11.1334
▁кодування	-11.1335
rent	-11.1335
щик	-11.1337
▁оцинкован	-11.1338
▁Дублікат	-11.1338
▁зручним	-11.1338
▁Weblate	-11.1338
▁звичайний	-11.1338
▁Reef	-11.1339
▁чит	-11.134
лийте	-11.1341
▁аж	-11.1342
▁кліпи	-11.1343
оване	-11.1344
зує	-11.1347
▁лікарня	-11.1348
▁жодн	-11.1349
ML	-11.1351
▁недосвідчена	-11.1351
▁передбачен	-11.1356
▁сторонніх	-11.1358
CN	-11.1358
DO	-11.136
цид	-11.1361
▁будьте	-11.1361
fin	-11.1362
нуть	-11.1362
▁сонячних	-11.1364
▁бог	-11.1365
▁Бас	-11.1365
une	-11.1366
ованої	-11.1368
лес	-11.1369
▁converter	-11.1369
▁долучено	-11.1369
3.1	-11.1369
▁материнськ	-11.1369
▁ручний	-11.1369
▁землю	-11.1369
170	-11.1371
ome	-11.1372
▁дюймовий	-11.1372
▁перекладається	-11.1374
▁Промисловість	-11.1375
▁Приватне	-11.1375
▁найнижчі	-11.1375
город	-11.1377
▁da	-11.1378
ринг	-11.138
▁островів	-11.1381
zer	-11.1383
▁рахунків	-11.1386
igh	-11.1387
▁округ	-11.1388
ui	-11.1388
▁розріз	-11.1388
▁si	-11.139
▁GS	-11.1393
▁криз	-11.1396
▁Ос	-11.1397
йдіть	-11.1398
▁побудован	-11.1399
▁підводн	-11.14
▁CyberGhost	-11.14
▁співвідношення	-11.14
▁потрапити	-11.14
▁Веймут	-11.14
▁оливков	-11.14
▁маленький	-11.1401
▁середині	-11.1401
▁бажано	-11.1401
cast	-11.1401
▁журналу	-11.1403
▁Дешеві	-11.1404
/1	-11.1407
РТ	-11.1409
157	-11.1409
sol	-11.1409
▁позначені	-11.1409
▁мрія	-11.1413
7.0	-11.1417
side	-11.1417
FA	-11.1418
вець	-11.142
▁(49	-11.142
▁рекламні	-11.1423
▁візуальн	-11.1425
нож	-11.1425
▁художник	-11.1426
АД	-11.1427
йшло	-11.1429
▁конфлікт	-11.1431
▁релігія	-11.1431
▁бачимо	-11.1432
▁Брюнетки	-11.1432
▁Аніме	-11.1432
▁Харчування	-11.1432
▁ES	-11.1434
▁стійка	-11.1434
▁голод	-11.1434
▁парку	-11.1436
СА	-11.1437
113	-11.1438
▁вузьк	-11.1438
▁замовника	-11.1439
яних	-11.1439
house	-11.1439
зін	-11.1441
▁СВ	-11.1442
▁розв	-11.1444
▁промислових	-11.1445
2010	-11.1447
рт	-11.1447
375	-11.1447
▁торгових	-11.1448
▁пс	-11.145
▁монтажу	-11.145
адреси	-11.1451
▁тато	-11.1451
▁балкон	-11.1451
▁пропуск	-11.1452
шн	-11.1455
vin	-11.1456
жин	-11.1456
енц	-11.1457
новини	-11.1459
▁сл	-11.1462
▁Куб	-11.1462
▁Tre	-11.1462
▁Global	-11.1463
▁Ромашки	-11.1463
▁третій	-11.1463
▁Помилка	-11.1463
▁недалеко	-11.1463
▁уроці	-11.1463
▁структуру	-11.1463
▁шкірі	-11.1464
▁Теніс	-11.1464
▁звертатися	-11.1465
▁подальш	-11.1465
▁фільтри	-11.1467
изація	-11.147
▁лоб	-11.147
▁огляди	-11.1471
▁шкільн	-11.1472
▁1.3	-11.1473
▁кущ	-11.1474
3.5	-11.1475
▁улюбленим	-11.1478
цет	-11.1478
▁повно	-11.1478
даєте	-11.1479
▁your	-11.1481
АННЯ	-11.1481
▁зрозуміло	-11.1482
▁житло	-11.1482
▁мбар	-11.1484
ада	-11.1485
▁рекламних	-11.1486
ПА	-11.1488
▁Американськ	-11.1488
▁256	-11.1489
▁водія	-11.149
▁Джей	-11.1491
▁IC	-11.1492
▁напрям	-11.1492
▁Vessoft	-11.1494
▁мільярд	-11.1494
▁виникнути	-11.1495
різноманітн	-11.1495
▁мільйони	-11.1495
▁доступними	-11.1495
▁макет	-11.1496
(21	-11.1499
FM	-11.15
▁Astra	-11.15
▁пунктів	-11.1501
▁турецька	-11.1502
▁НТВ	-11.1503
▁магнітн	-11.1503
▁Рак	-11.1505
▁збережен	-11.1505
итель	-11.1506
ux	-11.1507
▁рости	-11.1508
▁басейну	-11.1509
nic	-11.1509
▁PST	-11.1509
Guard	-11.1511
▁z	-11.1511
▁Спа	-11.1516
▁Введення	-11.1518
▁унікальні	-11.1518
▁створив	-11.1518
▁атакуюч	-11.1519
▁Христ	-11.152
▁стандартів	-11.1521
▁пластиков	-11.1522
▁Surfshark	-11.1526
▁ДУБАЙ	-11.1526
▁Утиліти	-11.1526
▁конструкцій	-11.1526
▁організацій	-11.1526
▁проникнення	-11.1526
▁оригінальні	-11.1526
▁первинн	-11.1527
▁пояснити	-11.1527
▁кохання	-11.1527
▁старих	-11.1527
▁паром	-11.1527
▁досі	-11.1527
▁напій	-11.1528
▁Лю	-11.1528
▁програвач	-11.1528
▁Африканська	-11.1529
▁навколишн	-11.153
▁точку	-11.1532
▁красива	-11.1533
▁конкретних	-11.1534
▁овочів	-11.1534
▁алюмінієвий	-11.1537
▁(12)	-11.1539
гол	-11.1541
▁мило	-11.1541
▁розміщен	-11.1542
▁угоду	-11.1545
▁зупинки	-11.1545
▁Запит	-11.1547
▁78	-11.1547
▁виклику	-11.1547
MM	-11.155
рак	-11.155
ska	-11.155
▁гріх	-11.1551
board	-11.1552
▁Величезн	-11.1553
▁смішн	-11.1556
▁КАРТА	-11.1558
▁взаємодії	-11.1558
▁двоспальне	-11.1558
▁необхідну	-11.1558
▁підлітків	-11.1558
▁концерт	-11.1558
▁Найчастіше	-11.1558
▁Garden	-11.1558
▁Вгору	-11.1558
▁Моделі	-11.1558
▁медичний	-11.1559
▁єдиним	-11.1559
▁реалізації	-11.156
▁89	-11.156
▁уже	-11.1563
▁підвісн	-11.1563
творю	-11.1564
▁документа	-11.1564
джу	-11.1565
▁спортсмен	-11.1568
▁Друк	-11.1568
▁контактів	-11.157
▁сенсорн	-11.157
▁підніма	-11.1571
▁3/4.	-11.1572
▁Жир	-11.1573
становіть	-11.1575
▁органи	-11.1575
▁CC	-11.1576
їзду	-11.1577
▁Tech	-11.1578
нна	-11.1581
▁співробітники	-11.1581
▁®	-11.1582
ваних	-11.1582
▁хакі	-11.1584
▁бездротовий	-11.1587
MI	-11.1588
AO	-11.1588
▁Private	-11.1589
дамо	-11.159
▁Маленький	-11.159
▁Швидка	-11.159
▁інвалідів	-11.159
▁категорій	-11.159
▁урахуванням	-11.159
▁ігров	-11.1591
▁Відправити	-11.1593
карти	-11.1593
▁ставлення	-11.1593
3.6	-11.1595
▁МА	-11.1598
▁Сем	-11.1599
-03-	-11.1599
▁відповідний	-11.1599
▁світов	-11.16
▁br	-11.16
▁74	-11.1601
▁Домашній	-11.1601
ют	-11.1605
▁0.3	-11.1606
▁ключових	-11.1608
▁вільні	-11.161
▁(80	-11.1613
▁модулі	-11.1614
Al	-11.1615
▁заяви	-11.1615
меться	-11.1616
▁Bri	-11.1616
певне	-11.1618
тера	-11.1618
led	-11.1618
єтнам	-11.1619
▁гео	-11.1621
▁Констанца	-11.1622
▁Одружена	-11.1622
▁лабораторії	-11.1622
▁Вантаж	-11.1622
▁Технічна	-11.1622
▁спортивний	-11.1622
lie	-11.1623
▁Лекція	-11.1623
▁Рот	-11.1624
▁Вілла	-11.1624
▁підрозділ	-11.1624
▁зберігається	-11.1626
▁джерелом	-11.1627
▁травми	-11.1629
▁Трав	-11.163
ЛЮ	-11.1631
кухар	-11.1631
▁команді	-11.1632
▁Міжнародні	-11.1632
max	-11.1633
▁дивовижний	-11.1633
xml	-11.1634
▁модуля	-11.1634
▁управляти	-11.1634
ведіть	-11.1635
▁Bro	-11.1636
rop	-11.1636
▁Розклад	-11.1636
▁каталогу	-11.1638
vent	-11.1639
▁грають	-11.1641
▁Торгівля	-11.1646
▁Apr	-11.1646
NE	-11.1647
▁марка	-11.1647
руб	-11.1648
▁відмови	-11.1652
▁необмежену	-11.1653
▁фахівця	-11.1654
▁незабаром	-11.1654
▁змусити	-11.1654
emoji	-11.1654
▁ємності	-11.1654
▁скутер	-11.1654
▁французький	-11.1654
▁обертання	-11.1655
▁відстежувати	-11.1655
176	-11.1655
мбо	-11.1656
▁Варто	-11.1657
▁клімату	-11.1658
▁розробникам	-11.1661
десят	-11.1663
▁інвестор	-11.1664
▁Mal	-11.1665
ворот	-11.1665
▁характеру	-11.1666
▁посл	-11.1666
girl	-11.1669
▁журнали	-11.167
▁італійська	-11.1671
-17	-11.1671
▁торговий	-11.1672
ТОР	-11.1672
слі	-11.1673
▁унікальним	-11.1675
▁Глибок	-11.1675
▁кролики	-11.1676
▁заснований	-11.1677
other	-11.1677
FI	-11.1679
▁другого	-11.1679
▁схему	-11.168
950	-11.1681
▁розроблен	-11.1681
Ла	-11.1681
▁намагатися	-11.1683
▁утрьох	-11.1686
▁невелика	-11.1686
▁автоматизації	-11.1686
▁лінію	-11.1686
▁цукор	-11.1686
ious	-11.1687
▁Трансфер	-11.1687
▁полегшити	-11.1688
▁скарг	-11.1689
▁EML	-11.169
kin	-11.1691
орієнтован	-11.1691
▁Швейцарський	-11.1691
▁пошуков	-11.1692
▁написання	-11.1693
▁Поза	-11.1703
талі	-11.1705
ama	-11.1707
TF	-11.171
вана	-11.1711
гас	-11.1712
▁Читай	-11.1716
Громадськ	-11.1718
▁Каліфорнія	-11.1718
▁Місяць	-11.1718
▁дитину	-11.1718
▁розпочати	-11.1718
▁впоратися	-11.1718
▁Орпек	-11.1718
▁розуміти	-11.1718
▁Перу	-11.1719
illa	-11.172
▁знижується	-11.1721
▁(91	-11.1721
▁суп	-11.1721
▁Ноги	-11.1721
▁кола	-11.1723
▁фінансових	-11.1725
▁смачно	-11.1726
БИ	-11.1731
▁комах	-11.1732
▁Bird	-11.1732
▁улюблених	-11.1733
▁Mail	-11.1733
▁Було	-11.1733
холод	-11.1734
изації	-11.1734
2/8	-11.1735
▁вилучення	-11.1739
hy	-11.174
▁розділен	-11.174
▁Середа	-11.1743
евий	-11.1746
▁Арабські	-11.1746
ощ	-11.1746
▁поміч	-11.1748
▁Торт	-11.1749
▁Нас	-11.175
▁областях	-11.1751
▁Домашнє	-11.1751
▁винятков	-11.1751
▁продовження	-11.1751
▁Яйця	-11.1751
▁Back	-11.1751
▁Стіл	-11.1751
▁розробка	-11.1751
▁зразки	-11.1751
▁добрив	-11.1752
▁пішли	-11.1753
heng	-11.1753
уванню	-11.1755
▁нано	-11.1755
накопичувач	-11.1756
▁комерційних	-11.1756
▁самих	-11.1757
▁Гонконг	-11.1758
▁транспортування	-11.1759
▁Німеччини	-11.1761
бокс	-11.1762
▁власника	-11.1763
▁назвати	-11.1765
лиш	-11.1768
▁покер	-11.1769
▁Грає	-11.1771
▁кваліфікован	-11.1774
слух	-11.1775
tr	-11.1776
ОП	-11.1776
▁незалежних	-11.1779
▁подають	-11.1781
▁Rock	-11.1781
▁потужним	-11.1782
commerce	-11.1783
▁Швейцарії	-11.1783
▁відношення	-11.1783
▁дитячий	-11.1783
▁позиція	-11.1783
▁фізичні	-11.1783
▁працював	-11.1783
▁Зрілі	-11.1784
▁стиснення	-11.1784
ифікація	-11.1785
▁(93	-11.1785
глиб	-11.1785
▁миль	-11.1786
▁серцево	-11.1786
▁водо	-11.1787
IE	-11.1788
ИС	-11.1789
▁повсякденн	-11.1791
▁Коментарів	-11.1792
▁простор	-11.1793
▁людині	-11.1793
▁ліценз	-11.1795
▁органічн	-11.1795
ras	-11.1797
▁фотограф	-11.1797
▁пропонуються	-11.1797
▁здорового	-11.1798
CP	-11.1798
▁брокер	-11.1799
long	-11.1801
▁подальшого	-11.1802
верн	-11.1804
▁зелені	-11.1804
▁Особлив	-11.1811
яни	-11.1812
шина	-11.1812
ГА	-11.1813
▁температур	-11.1814
▁Пен	-11.1815
RU	-11.1815
▁AJMAN	-11.1816
▁NBSP	-11.1816
▁Проблема	-11.1816
▁відбудеться	-11.1816
▁конвеєр	-11.1816
▁лілій	-11.1816
▁космос	-11.1816
▁служити	-11.1816
▁Преміум	-11.1816
▁каз	-11.1816
вище	-11.1816
▁Alexis	-11.1817
▁Станція	-11.1817
aj	-11.1817
▁турбуватися	-11.1817
▁вийде	-11.1822
рез	-11.1824
char	-11.1825
▁чисті	-11.1825
▁романтичн	-11.1826
жування	-11.1827
▁годувати	-11.1829
▁навчальний	-11.183
▁гот	-11.183
mes	-11.1831
Di	-11.1831
▁віком	-11.1835
беріть	-11.1835
▁Вінтажний	-11.1836
гір	-11.1836
▁симптом	-11.1838
cker	-11.1841
реб	-11.1841
4.3	-11.1842
▁......	-11.1844
▁Засоби	-11.1848
▁Розташування	-11.1848
▁алгоритм	-11.1848
▁гарячий	-11.1848
▁необхідним	-11.1848
▁останнього	-11.1848
▁сучасного	-11.1848
′′	-11.1848
▁церква	-11.1848
▁Значення	-11.1848
▁скоротити	-11.1848
▁перевірка	-11.1848
▁clips	-11.1848
▁Повністю	-11.1849
▁забарвлення	-11.1849
▁штани	-11.1849
▁сильним	-11.1849
▁низька	-11.185
▁місія	-11.1851
▁олії	-11.1851
вис	-11.1852
▁втоми	-11.1852
▁докладно	-11.1852
хт	-11.1852
спект	-11.1858
золот	-11.1861
▁MA	-11.1863
▁Bit	-11.1864
▁DE	-11.1865
▁гольф	-11.1868
▁зсув	-11.1868
(24	-11.1868
▁моніторинг	-11.1869
yr	-11.1869
▁(86	-11.187
друге	-11.187
тери	-11.1873
Бі	-11.1873
▁подібні	-11.1874
пінг	-11.1874
CD	-11.1874
uit	-11.1875
▁Повна	-11.1877
▁змінює	-11.1881
▁Секрет	-11.1881
▁ДЖАКАРТА	-11.1881
▁вирішувати	-11.1881
ü	-11.1881
▁Huawei	-11.1881
валися	-11.1882
cf	-11.1882
▁смаку	-11.1882
kw	-11.1883
▁Tra	-11.1884
▁космічн	-11.1885
Сайт	-11.1885
ндер	-11.1885
лед	-11.1885
tas	-11.1885
▁02:00	-11.1887
цх	-11.1887
320	-11.1888
▁Португальська	-11.1889
▁вен	-11.1895
▁холестерину	-11.1896
▁79	-11.1898
файлів	-11.1905
▁can	-11.1906
▁розділити	-11.1908
▁кошиків	-11.1911
▁(57	-11.1913
▁купівлі	-11.1914
▁Адресу	-11.1914
▁Москві	-11.1914
▁верхньої	-11.1914
▁прогулянки	-11.1914
▁with	-11.1914
▁Speed	-11.1915
3.8	-11.1918
▁Можлив	-11.1919
▁системами	-11.192
▁Visa	-11.192
очні	-11.1923
▁квіткових	-11.1925
▁столов	-11.1925
▁щомісячн	-11.193
▁відображається	-11.1931
сумісн	-11.1932
джі	-11.1933
▁спостерігати	-11.1934
MHz	-11.1939
▁ліхтар	-11.1941
▁Tea	-11.1943
▁стандартн	-11.1943
Coin	-11.1943
▁брудн	-11.1944
▁вважаю	-11.1945
▁Атлантик	-11.1946
2.3	-11.1946
▁Astemaria	-11.1947
▁Книги	-11.1947
▁пристроями	-11.1947
▁включена	-11.1947
▁почути	-11.1947
elo	-11.1947
▁прибутков	-11.1947
▁оборони	-11.1948
льйон	-11.1948
рожев	-11.1948
▁робиться	-11.1949
▁круп	-11.195
▁вул	-11.1951
гія	-11.1951
▁розроблена	-11.1951
▁Market	-11.1952
чко	-11.1952
▁смуги	-11.1954
▁app	-11.1954
спорт	-11.1954
крас	-11.1958
УВАННЯ	-11.196
▁автомат	-11.1961
▁3)	-11.1961
▁зерна	-11.1963
▁Lab	-11.1963
4.9	-11.1965
▁купив	-11.1966
▁Ru	-11.1968
▁лап	-11.1969
▁дозу	-11.197
rit	-11.1972
▁use	-11.1973
▁вологи	-11.1973
▁Гру	-11.1973
▁професіоналів	-11.1975
▁вісім	-11.1976
▁уроки	-11.1977
▁Hol	-11.1979
▁обережні	-11.198
▁bigXvideos	-11.198
▁Клацніть	-11.198
▁адміністративн	-11.198
▁слайд	-11.198
▁Сцена	-11.198
▁договір	-11.198
▁Image	-11.198
▁мінеральн	-11.1981
▁турнір	-11.1981
gh	-11.1981
▁покращення	-11.1983
▁серіал	-11.1983
Ст	-11.1987
льс	-11.1988
містіть	-11.1989
▁Звук	-11.199
ref	-11.1991
oli	-11.1991
▁Бей	-11.1992
▁квартал	-11.1993
▁Європейський	-11.1993
▁температуру	-11.1993
▁цукров	-11.1995
▁Bur	-11.1996
▁поромн	-11.1996
даються	-11.1996
▁результату	-11.1996
техн	-11.1996
▁Атлантік	-11.1997
▁професійно	-11.1997
0+	-11.1998
▁відкрив	-11.2005
▁Арт	-11.2006
▁1.8	-11.2007
▁шоколаду	-11.2008
▁вуличн	-11.2008
▁Ас	-11.2011
GLONASS	-11.2013
▁Квитки	-11.2013
▁Фестиваль	-11.2013
▁підготовлен	-11.2013
▁тимчасово	-11.2014
дюймовий	-11.2014
▁дефект	-11.2014
▁Перейдіть	-11.2014
▁нерухомість	-11.2014
▁Софт	-11.2015
ating	-11.2018
ble	-11.2019
▁відповідальним	-11.202
▁Dream	-11.2021
▁температурі	-11.2023
▁найважливіш	-11.2025
верс	-11.2025
450	-11.2026
▁улюблений	-11.2027
Гц	-11.2027
ейт	-11.2028
▁Сезон	-11.2028
ets	-11.2028
дир	-11.2032
▁пул	-11.2033
▁текстов	-11.2035
▁Джек	-11.2038
▁Пірсинг	-11.2039
EST	-11.2041
чеп	-11.2041
ютери	-11.2043
око	-11.2043
▁Master	-11.2045
▁Ультра	-11.2045
▁вітальні	-11.2046
▁Прекрасний	-11.2047
▁завгодно	-11.2047
▁рогоносець	-11.2047
▁Місцев	-11.2047
▁перевіряє	-11.2047
▁семінар	-11.2047
▁емулятор	-11.2047
nor	-11.2048
▁розділи	-11.2048
▁низьк	-11.2049
▁Апарт	-11.205
Що	-11.2051
9]	-11.2051
граш	-11.2052
▁адмін	-11.2052
ляйте	-11.2054
▁літати	-11.2055
▁Gmail	-11.2056
FS	-11.2058
▁Ray	-11.206
▁ресивер	-11.2062
▁контекст	-11.2062
ati	-11.2063
▁фірмов	-11.2064
▁(65	-11.2066
▁СА	-11.2067
▁привод	-11.2067
106	-11.2068
▁Рам	-11.2069
стабільн	-11.2071
вік	-11.2072
▁ваза	-11.2072
▁Fit	-11.2072
▁лампа	-11.2073
▁Studio	-11.2074
бувати	-11.2075
чав	-11.2076
▁Невелик	-11.2078
▁східний	-11.2079
▁Навіщо	-11.208
▁метаболізм	-11.208
▁сегмент	-11.208
▁таблетка	-11.208
▁загальну	-11.208
▁вуглеводів	-11.208
PM	-11.2081
▁сеанс	-11.2081
▁методом	-11.2083
▁посилення	-11.2083
▁банер	-11.2088
▁робочом	-11.2089
▁мол	-11.209
▁ABS	-11.2092
ЕД	-11.2095
▁схож	-11.2096
▁боб	-11.2097
ени	-11.2102
ЗИ	-11.2103
▁місячн	-11.2104
АГА	-11.2104
-13	-11.2104
▁Люб	-11.2106
ником	-11.2108
▁шаблони	-11.2109
▁фотографія	-11.211
ніші	-11.211
▁112	-11.2111
▁Фор	-11.2113
▁Платформа	-11.2114
▁приміщенні	-11.2114
▁Гарячий	-11.2114
▁помідор	-11.2114
▁видалені	-11.2114
▁Digital	-11.2114
▁аналітичних	-11.2114
▁моделювання	-11.2114
▁кімнатах	-11.2116
▁тури	-11.2117
▁бажанням	-11.2117
▁Bra	-11.2117
дро	-11.2118
▁Відкрит	-11.212
▁Головн	-11.212
tru	-11.212
▁українська	-11.2123
▁пропонується	-11.2129
ційні	-11.2131
▁доби	-11.2131
▁запитати	-11.2132
▁(13)	-11.2134
▁Диск	-11.2134
▁альбом	-11.2135
▁відсутні	-11.2135
▁косметичн	-11.2136
▁морських	-11.2138
▁норм	-11.2139
▁партнери	-11.214
▁угода	-11.214
льт	-11.214
▁гвоздик	-11.2141
▁Card	-11.2141
▁Медична	-11.2142
▁допоможемо	-11.2144
▁Набір	-11.2144
▁британськ	-11.2144
ally	-11.2146
▁Прихильник	-11.2147
▁плазмов	-11.2147
▁приватне	-11.2147
▁стрічка	-11.2147
▁сюди	-11.2147
▁Романтичні	-11.2148
▁займатися	-11.2148
▁Молода	-11.2148
▁протеїн	-11.2148
юючи	-11.2148
IR	-11.2148
▁Hel	-11.215
язлива	-11.2151
▁Валов	-11.2151
павук	-11.2152
ец	-11.2153
▁господар	-11.2157
▁4000	-11.2158
▁(95	-11.2158
бург	-11.2159
▁електронн	-11.216
▁суміші	-11.2161
Espa	-11.2165
▁Файли	-11.2167
води	-11.2168
▁News	-11.2171
▁пластикових	-11.2173
lar	-11.2175
чита	-11.2175
▁інтервал	-11.2176
7.5	-11.2179
▁Зміни	-11.2179
▁потяг	-11.2181
▁медикамент	-11.2181
▁відбулося	-11.2181
▁прекрасним	-11.2181
▁Youtube	-11.2181
▁різновид	-11.2181
▁податков	-11.2181
▁БАЛІ	-11.2183
▁#2	-11.2183
▁кошику	-11.2183
how	-11.2183
▁камеру	-11.2184
▁Інша	-11.2186
▁акаунта	-11.2186
▁аспект	-11.2187
склад	-11.2189
карт	-11.219
4.7	-11.2193
▁альт	-11.2193
кут	-11.2194
▁84	-11.2197
▁субота	-11.2201
▁оперативн	-11.2202
git	-11.2204
фікован	-11.2204
▁Чат	-11.2204
▁Дочка	-11.2204
▁Tele	-11.2205
nel	-11.2206
▁рекорд	-11.2209
▁ресторани	-11.2209
ОВА	-11.2212
▁продуктами	-11.2214
uff	-11.2214
повне	-11.2214
▁лічильник	-11.2215
▁нареченої	-11.2215
▁цицьки	-11.2215
▁Постійне	-11.2215
▁смерть	-11.2215
▁зроблений	-11.2215
▁чудове	-11.2215
▁Свіж	-11.2216
кишков	-11.2217
пре	-11.222
▁Майте	-11.2222
▁настрою	-11.2222
▁Ант	-11.2223
▁Ball	-11.2223
ММ	-11.2223
▁EX	-11.2224
0.5	-11.2225
sto	-11.2227
оза	-11.2227
blog	-11.223
▁hi	-11.223
wo	-11.223
ira	-11.2232
▁мобільн	-11.2232
илося	-11.2233
▁складе	-11.2233
шень	-11.2235
каль	-11.2236
▁Данія	-11.2237
KW	-11.2238
▁спати	-11.224
▁існуюч	-11.2242
пок	-11.2243
cus	-11.2244
▁хр	-11.2244
▁Sport	-11.2245
8.0	-11.2246
cat	-11.2247
▁літака	-11.2248
▁Transposh	-11.2249
▁Трійця	-11.2249
▁кнопкою	-11.2249
▁імунітет	-11.2249
▁Корпоративн	-11.2249
▁so	-11.2251
▁деревини	-11.2251
▁рано	-11.2251
▁Голос	-11.2252
▁Emojis	-11.2253
▁Дика	-11.2255
▁щит	-11.2255
▁кожним	-11.2255
2.2	-11.2256
▁харчові	-11.2256
▁ек	-11.2256
▁Hielscher	-11.2258
▁10000	-11.2259
oni	-11.226
ходять	-11.2266
▁обмежен	-11.2267
▁Жіночі	-11.2268
атів	-11.2271
▁відвар	-11.2273
▁автомати	-11.2273
БО	-11.2274
▁альтернативн	-11.2274
420	-11.2275
▁стандарти	-11.2275
▁профілі	-11.2276
▁Ana	-11.2277
▁віри	-11.2277
ЕК	-11.228
inch	-11.2281
340	-11.2282
▁складним	-11.2283
▁Борнмут	-11.2283
▁Відпочинок	-11.2283
▁РОСТУ	-11.2283
▁обидві	-11.2283
▁прямі	-11.2283
▁сучасному	-11.2283
▁імпульс	-11.2283
▁важлива	-11.2283
▁Польська	-11.2283
▁покупку	-11.2283
язковим	-11.2283
▁трійка	-11.2283
▁&#8216;	-11.2284
▁Святковий	-11.2284
алося	-11.2284
▁яйце	-11.2285
▁повертається	-11.2285
аційні	-11.2287
▁рифов	-11.2287
▁інтенсивності	-11.2288
word	-11.2288
▁фарбування	-11.2288
▁облікових	-11.2289
ova	-11.2291
▁Симптоми	-11.2292
▁квадратних	-11.2293
змінного	-11.2296
▁Services	-11.2296
▁???	-11.2296
lor	-11.2297
▁наведені	-11.23
▁винагород	-11.2302
▁зростаюч	-11.2303
bs	-11.2309
0:01	-11.2309
▁(59	-11.2311
▁дизайнерів	-11.2312
▁25%	-11.2313
▁блоки	-11.2313
▁[10	-11.2314
лор	-11.2315
175	-11.2316
▁She	-11.2317
▁мистецтв	-11.2317
▁Анадрол	-11.2317
▁взимку	-11.2317
▁керамічн	-11.2317
▁вакцин	-11.2317
▁оргія	-11.2317
▁Землі	-11.2317
▁крапель	-11.2318
▁коренев	-11.2318
▁Шт	-11.232
скан	-11.2323
▁складання	-11.2323
дизайн	-11.2323
биває	-11.2324
▁КОН	-11.2324
ради	-11.2324
▁відповідним	-11.2324
▁FTP	-11.2325
XX	-11.2325
▁Крихітка	-11.2327
▁дещо	-11.2327
▁знаків	-11.2329
mor	-11.233
rie	-11.233
▁включення	-11.2332
▁розумію	-11.2332
▁кас	-11.2333
кової	-11.2334
IO	-11.2335
▁ризики	-11.2336
▁сервісів	-11.2336
▁плакат	-11.2337
GE	-11.2338
km	-11.2338
матеріал	-11.2338
▁детальну	-11.2339
▁нагороди	-11.2343
▁вакуумн	-11.2343
▁База	-11.2345
ante	-11.2347
▁горизонтальн	-11.2348
AU	-11.2349
▁Suites	-11.2349
▁Шкіра	-11.235
▁магазинах	-11.2351
▁Шпалери	-11.2352
▁живопис	-11.2352
▁композицій	-11.2352
▁включено	-11.2352
▁Докладніше	-11.2352
▁представити	-11.2352
▁Дво	-11.2352
▁влітку	-11.2352
▁Motor	-11.2354
кинути	-11.2354
▁Лев	-11.2355
ena	-11.2356
▁ВАШ	-11.2357
265	-11.2357
торг	-11.2358
▁фонов	-11.2358
0,00	-11.236
сний	-11.236
▁металеві	-11.2362
▁wh	-11.2363
▁чорн	-11.2364
▁попередні	-11.2364
▁(89	-11.2364
якою	-11.2365
▁психологічн	-11.2366
ото	-11.2371
▁Рух	-11.2372
▁зібран	-11.2374
▁суті	-11.2375
▁вулиця	-11.2376
▁Власн	-11.2379
lyn	-11.238
▁держави	-11.2381
▁втрачен	-11.2382
▁Пап	-11.2382
▁постачання	-11.2384
▁Ben	-11.2384
ФІ	-11.2385
▁Спідниця	-11.2386
▁Угорщина	-11.2386
▁допоміжн	-11.2386
▁недорогий	-11.2386
▁включений	-11.2386
▁плече	-11.2386
▁хвиля	-11.2386
▁восьми	-11.2386
▁NordVPN	-11.2386
▁арабськ	-11.2387
вілл	-11.2387
▁вільних	-11.2388
▁анальний	-11.2389
пут	-11.2389
▁розсуд	-11.239
▁Life	-11.239
aka	-11.239
▁Мен	-11.239
▁коней	-11.2393
ory	-11.2394
▁вживати	-11.2394
mil	-11.2396
дю	-11.2397
-12-	-11.2398
ІС	-11.2399
▁повними	-11.2399
▁CSS	-11.24
▁схильні	-11.2401
-200	-11.2402
▁опор	-11.2402
▁LC	-11.2406
▁регулятор	-11.2406
▁бібліотека	-11.2407
▁fa	-11.2407
pack	-11.241
▁Щоденн	-11.2412
TR	-11.2412
core	-11.2413
▁здоровий	-11.2416
КМ	-11.2417
new	-11.242
(32	-11.242
▁Cismaru	-11.2421
▁Єрусалим	-11.2421
▁Джунглі	-11.2421
▁Назовні	-11.2421
▁окремим	-11.2421
▁Справа	-11.2421
▁натрію	-11.2422
▁кришка	-11.2422
▁капсули	-11.2423
▁гонки	-11.2423
▁заповнен	-11.2424
sl	-11.2424
фактур	-11.2425
▁прян	-11.2425
анти	-11.2426
▁Зелен	-11.2426
▁дорогоцінн	-11.2427
▁Part	-11.2428
▁звичайні	-11.2428
bus	-11.2428
▁черепа	-11.2431
▁каш	-11.2432
888	-11.2433
▁гідн	-11.2434
▁короб	-11.2435
▁дружн	-11.2435
6">	-11.2436
▁Option	-11.2439
теля	-11.2441
▁фактичн	-11.2442
not	-11.2443
▁принципи	-11.2444
▁70%	-11.2444
195	-11.2444
-08-	-11.2445
▁довжину	-11.2447
сексуал	-11.2447
▁ядра	-11.2449
▁фарби	-11.2449
▁освітлен	-11.2452
▁знижує	-11.2453
▁велосипеді	-11.2454
▁Пор	-11.2455
▁фруктов	-11.2455
▁Європейки	-11.2455
▁ПОЛІТИКА	-11.2455
▁Чудовий	-11.2455
▁використали	-11.2455
▁кулінарн	-11.2455
▁DOHA	-11.2456
жки	-11.2456
▁Anavar	-11.2456
▁звичайних	-11.2456
▁поліестер	-11.2456
Ma	-11.2456
явля	-11.2456
▁здатністю	-11.2456
ставляє	-11.2457
▁створено	-11.2457
▁відділення	-11.2458
МУ	-11.2459
▁теги	-11.246
тков	-11.2464
ографія	-11.2464
▁букв	-11.2464
qua	-11.247
язавши	-11.2472
▁Тренер	-11.2472
▁Район	-11.2472
▁макс	-11.2472
плут	-11.2473
▁Job	-11.2474
ский	-11.2477
▁архітектури	-11.248
▁73	-11.248
▁сортів	-11.2482
▁заплатити	-11.2483
▁старш	-11.2486
▁зручні	-11.2488
-2017	-11.2489
▁Дізнатися	-11.249
▁важливе	-11.249
▁наповнювач	-11.249
▁хімічних	-11.249
▁намагався	-11.2491
▁дозволено	-11.2491
▁маркування	-11.2492
▁пакувальн	-11.2492
▁вогонь	-11.2492
▁благо	-11.2493
Hz	-11.2493
▁будучи	-11.2493
▁актуальними	-11.2494
служб	-11.2495
▁практика	-11.2496
увальні	-11.2497
▁1.6	-11.2498
▁Tur	-11.2499
▁домашніми	-11.2499
▁полив	-11.2499
сторінки	-11.25
▁нот	-11.2501
шер	-11.2501
▁продуктом	-11.2503
▁фахівці	-11.2506
▁per	-11.2506
rin	-11.2507
▁Ган	-11.2508
▁тестів	-11.251
▁туш	-11.2512
▁порід	-11.2518
▁завершен	-11.2521
▁Rose	-11.2522
таки	-11.2523
▁візерунок	-11.2525
▁розблокувати	-11.2525
▁епізод	-11.2525
▁Ліжко	-11.2525
▁мікрофон	-11.2526
▁вежі	-11.2528
▁футів	-11.2529
▁Плюшевий	-11.2531
▁мобільному	-11.2532
▁Ste	-11.2533
мовляти	-11.2536
▁Мад	-11.2539
▁глядачів	-11.2539
▁Gl	-11.254
байт	-11.254
▁Apartments	-11.254
BM	-11.2541
▁Телеканал	-11.2544
▁відеокарт	-11.2545
▁Домініканськ	-11.2546
яви	-11.2547
oma	-11.255
▁літрів	-11.2551
ніт	-11.2552
оперативної	-11.2553
▁обман	-11.2553
▁КБР	-11.2554
▁Сон	-11.2554
▁знижен	-11.2558
▁(68	-11.2558
▁комфортно	-11.2558
▁Ser	-11.256
▁спад	-11.256
▁Королівство	-11.256
▁способами	-11.256
▁Земля	-11.256
▁загальна	-11.256
▁очима	-11.256
ивна	-11.2561
▁зняття	-11.2561
ual	-11.2561
▁розвивається	-11.2561
▁операція	-11.2561
▁Бан	-11.2562
▁Купуйте	-11.2562
▁досягати	-11.2562
▁супутникових	-11.2563
док	-11.2564
кисл	-11.2565
▁EN	-11.2565
▁дорого	-11.2565
▁відгуків	-11.2566
▁Теми	-11.2566
зд	-11.2567
▁ката	-11.2568
La	-11.257
шар	-11.2573
▁прийшли	-11.2574
▁Фонд	-11.2576
▁рок	-11.2576
▁колон	-11.2577
▁Вбудований	-11.2578
▁домену	-11.2578
▁ворог	-11.2579
▁точними	-11.2579
▁Player	-11.258
▁болт	-11.258
▁Pan	-11.2585
(27	-11.2585
ЛТ	-11.2585
8]	-11.2588
овій	-11.259
▁стовп	-11.2591
ости	-11.2593
▁офіційно	-11.2593
▁арбітр	-11.2595
▁сподіва	-11.2595
▁Англії	-11.2596
▁оцінено	-11.2596
▁OSCam	-11.2596
▁Закінчується	-11.2596
▁полегшення	-11.2596
▁Трохи	-11.2596
▁усунути	-11.2596
▁різноманітність	-11.2598
▁правильні	-11.2598
систем	-11.2598
▁Games	-11.2599
4.8	-11.2599
чики	-11.2599
▁хор	-11.2599
▁MO	-11.26
▁складних	-11.26
▁Молоді	-11.2601
▁плануєте	-11.2603
777	-11.2603
fm	-11.2604
▁ОД	-11.2604
▁люб	-11.2604
card	-11.2605
▁Визначення	-11.2606
▁МЕ	-11.2606
▁Прям	-11.2607
▁картинки	-11.2607
124	-11.261
▁поширені	-11.2611
xxx	-11.2611
▁поїздка	-11.2611
▁part	-11.2613
▁інновацій	-11.2614
▁приєдна	-11.2614
▁тег	-11.2617
gal	-11.2617
сум	-11.2617
▁духовн	-11.262
6.1	-11.262
▁пікселі	-11.2621
5]	-11.2621
▁Залиш	-11.2621
Кар	-11.2623
▁Право	-11.2623
▁320	-11.2627
▁балансу	-11.263
DC	-11.263
▁Медицина	-11.2631
▁Сідней	-11.2631
▁допоможіть	-11.2631
▁застосувати	-11.2631
▁навантажувач	-11.2631
▁фортепіано	-11.2631
▁Нейлон	-11.2631
▁Дійсність	-11.2632
▁Вид	-11.2633
▁реальних	-11.2634
▁розташована	-11.2636
960	-11.2636
▁Форт	-11.2641
АЖ	-11.2641
▁стероїдних	-11.2642
нові	-11.2642
cur	-11.2644
▁дах	-11.2647
▁критичн	-11.265
▁працюємо	-11.265
▁Mag	-11.2653
▁завантажувальн	-11.2654
▁Кредит	-11.2654
▁подання	-11.2656
▁Формат	-11.2656
▁нейро	-11.2657
▁додав	-11.2658
▁мінімуму	-11.2658
ВЕР	-11.2661
▁нервов	-11.2663
чіп	-11.2664
▁надсилати	-11.2666
▁застосуванню	-11.2666
▁кисню	-11.2666
▁найпростіш	-11.2666
▁отримала	-11.2666
▁релігійн	-11.2666
▁ситуацію	-11.2666
▁ділитися	-11.2667
▁бінарн	-11.2667
▁виникли	-11.2667
▁червоного	-11.2667
▁турбот	-11.2667
▁участі	-11.2668
▁(18)	-11.2668
▁дослідник	-11.2669
▁британський	-11.2669
▁Вашу	-11.267
▁патч	-11.2671
ima	-11.2674
▁мовах	-11.2675
▁Teen	-11.2676
▁Шоколад	-11.2676
yu	-11.2677
нтаж	-11.2682
▁Медичний	-11.2683
▁виведення	-11.2683
пускає	-11.2685
мир	-11.2687
круч	-11.269
▁(14)	-11.2693
▁платіжн	-11.2693
▁додають	-11.2696
дін	-11.2696
▁акаунт	-11.2697
▁активован	-11.2697
▁Високі	-11.2697
▁Транспорт	-11.2699
▁Explorer	-11.2702
▁гарячої	-11.2702
▁кращої	-11.2702
▁смокче	-11.2702
▁Неділя	-11.2702
▁Подруга	-11.2702
▁запущений	-11.2702
▁Залежно	-11.2702
▁дивіться	-11.2703
▁запланован	-11.2703
▁підняти	-11.2704
амп	-11.2704
▁Попереднє	-11.2705
ніка	-11.2706
arch	-11.2708
▁професійного	-11.2708
▁ламп	-11.2709
▁маленьких	-11.271
Під	-11.271
▁Cash	-11.271
їхати	-11.2711
▁складає	-11.2711
▁прилади	-11.2711
▁sex	-11.2713
▁пап	-11.2713
▁Ins	-11.272
agan	-11.272
дослідн	-11.2721
▁Led	-11.2721
пік	-11.2725
att	-11.2726
▁Of	-11.2727
ставки	-11.2728
333	-11.2729
▁3.5	-11.2731
▁pov	-11.2731
9.5	-11.2732
▁фільтра	-11.2732
▁81	-11.2732
▁Вікна	-11.2734
▁повільн	-11.2734
уючий	-11.2735
▁визнан	-11.2736
▁хмарн	-11.2736
▁світлодіодним	-11.2737
чит	-11.2737
▁відсутності	-11.2738
▁клацніть	-11.2738
▁важливий	-11.2738
▁використати	-11.2738
▁технологію	-11.2738
▁інтеграції	-11.2738
чкою	-11.2738
▁Овоч	-11.2738
▁ключі	-11.2738
▁1,2	-11.274
▁масу	-11.2743
▁Бак	-11.2743
▁двічі	-11.2744
▁[1]	-11.2744
▁нуля	-11.2744
▁Вплив	-11.2747
▁проходити	-11.2747
▁Короткий	-11.2748
▁Японки	-11.2748
▁дешевий	-11.2749
голос	-11.2751
ated	-11.2752
ace	-11.2753
▁ніби	-11.2755
▁спалах	-11.2757
▁Вільн	-11.2758
реклам	-11.2759
▁93	-11.2761
▁Ефект	-11.2762
щу	-11.2763
▁місцевим	-11.2765
awa	-11.2765
▁Out	-11.2767
дзвін	-11.277
▁покрит	-11.2773
▁XXXKinky	-11.2774
▁Нержавіюч	-11.2774
▁картопля	-11.2774
▁китайський	-11.2774
▁приватного	-11.2774
▁консолі	-11.2774
▁контраст	-11.2774
▁забувайте	-11.2774
▁радий	-11.2776
field	-11.2776
▁умовами	-11.2777
▁Кошт	-11.2779
▁порожній	-11.278
▁(88	-11.278
MB	-11.2781
кула	-11.2781
▁Aqua	-11.2781
▁Hong	-11.2782
▁норма	-11.2785
▁Mas	-11.2787
▁керован	-11.2788
ква	-11.279
очку	-11.2793
▁запускає	-11.2793
▁рада	-11.2795
▁реле	-11.2795
▁МОК	-11.2796
▁ситуація	-11.2798
▁$3	-11.28
▁характеристика	-11.28
/3	-11.2801
▁диски	-11.2802
▁Базов	-11.2802
▁сорти	-11.2802
▁холодильником	-11.2805
Up	-11.2805
глі	-11.2806
999	-11.2806
спан	-11.2808
▁Messenger	-11.281
▁Вашингтон	-11.281
▁ДЕЛЮКС	-11.281
▁Шаньдун	-11.281
▁покоївка	-11.281
▁щасливий	-11.281
▁тропічн	-11.281
▁індійськ	-11.281
МС	-11.2811
▁бувають	-11.2811
▁вітамінів	-11.2812
▁RUB	-11.2813
▁заліза	-11.2813
▁задати	-11.2817
▁матиме	-11.2818
дай	-11.2821
жан	-11.2821
▁зло	-11.2825
▁написано	-11.2826
load	-11.2827
▁запереч	-11.2829
▁ставок	-11.2829
▁Мала	-11.283
ПС	-11.2831
▁Андр	-11.2832
зашифрован	-11.2834
▁життям	-11.2834
▁мел	-11.2835
▁фу	-11.2835
▁пластини	-11.2836
АП	-11.2836
▁небажан	-11.2836
(26	-11.2836
▁виділити	-11.2838
тіл	-11.2839
▁широкого	-11.2839
els	-11.2843
▁соковит	-11.2845
▁Ірландії	-11.2846
▁Циндао	-11.2846
▁вагітна	-11.2846
▁дорожнього	-11.2846
▁діагноз	-11.2846
▁батьки	-11.2846
▁припинити	-11.2846
▁Розкішн	-11.2846
▁оплату	-11.2846
▁Ідея	-11.2846
▁File	-11.2847
▁Guest	-11.2847
▁здатна	-11.2847
▁автоматизован	-11.2847
▁АЛЬ	-11.2848
▁напружен	-11.2848
▁чеська	-11.285
▁декількома	-11.285
▁108	-11.285
▁лев	-11.2852
▁ват	-11.2852
▁Фільми	-11.2852
▁шкур	-11.2853
тична	-11.2853
▁Мартін	-11.2853
ью	-11.2853
/20	-11.2855
тег	-11.2855
ement	-11.2856
▁клавіатур	-11.2856
2009	-11.2856
▁банки	-11.2858
5.8	-11.2858
ii	-11.2859
col	-11.2859
▁кіст	-11.286
▁сейфом	-11.286
▁низькою	-11.2864
FE	-11.2866
ban	-11.2866
5.0	-11.2867
парк	-11.2868
форд	-11.2871
exe	-11.2876
рік	-11.2877
3.4	-11.2879
▁забув	-11.2879
▁Han	-11.288
▁біткойн	-11.2882
▁ведмедик	-11.2882
▁скопіювати	-11.2882
▁сприятлив	-11.2882
▁Перевірено	-11.2882
▁Знову	-11.2882
▁Роберт	-11.2882
▁радіостанція	-11.2882
▁Music	-11.2883
▁надійним	-11.2884
yrd	-11.2884
шня	-11.2885
▁бірж	-11.2885
▁Ри	-11.2885
▁Ранок	-11.2886
▁Мрія	-11.2888
гати	-11.2889
7]	-11.289
ato	-11.289
клав	-11.2891
▁натуральні	-11.2892
▁Tuber	-11.2893
149	-11.2893
▁попередніх	-11.2894
gas	-11.2895
▁Data	-11.2896
Золот	-11.2897
▁потокового	-11.2897
▁російські	-11.29
провайдер	-11.29
inn	-11.2901
▁вітаміни	-11.2902
▁відключення	-11.2903
▁ефекту	-11.2904
▁Ана	-11.2904
Track	-11.2905
▁баг	-11.2906
пізна	-11.2906
▁Гц	-11.2906
mate	-11.2908
wood	-11.291
нтер	-11.2911
▁малих	-11.2911
барі	-11.2912
▁правому	-11.2912
▁потенційних	-11.2913
друк	-11.2914
▁вірусів	-11.2914
вався	-11.2914
СК	-11.2916
▁Тату	-11.2917
▁Орхідеї	-11.2918
▁відповідей	-11.2918
▁пістолет	-11.2918
▁певну	-11.2918
▁посудомийн	-11.2918
▁веснян	-11.2918
▁кицька	-11.2918
▁покроков	-11.2919
бираючи	-11.2919
▁медичної	-11.292
ставляти	-11.292
увальник	-11.2921
▁---	-11.2922
▁монстр	-11.2925
gl	-11.2926
uc	-11.2927
ml	-11.2927
Сіті	-11.2927
▁задній	-11.2927
▁бренди	-11.2928
▁сигнали	-11.2929
▁Од	-11.2929
мете	-11.2929
▁бездротової	-11.2931
▁Свінгери	-11.2932
san	-11.2935
▁кВт	-11.2935
ili	-11.2936
▁слави	-11.2938
bl	-11.2939
▁Чі	-11.2939
шоу	-11.294
ei	-11.294
▁храм	-11.2942
▁рукою	-11.2943
кти	-11.2944
[...]
